{
  "version": "1.0",
  "truncation": null,
  "padding": null,
  "added_tokens": [
    {
      "id": 0,
      "content": "[PAD]",
      "single_word": false,
      "lstrip": false,
      "rstrip": false,
      "normalized": false,
      "special": true
    },
    {
      "id": 1,
      "content": "[UNK]",
      "single_word": false,
      "lstrip": false,
      "rstrip": false,
      "normalized": false,
      "special": true
    },
    {
      "id": 2,
      "content": "[BOS]",
      "single_word": false,
      "lstrip": false,
      "rstrip": false,
      "normalized": false,
      "special": true
    },
    {
      "id": 3,
      "content": "[EOS]",
      "single_word": false,
      "lstrip": false,
      "rstrip": false,
      "normalized": false,
      "special": true
    }
  ],
  "normalizer": null,
  "pre_tokenizer": {
    "type": "Whitespace"
  },
  "post_processor": null,
  "decoder": null,
  "model": {
    "type": "BPE",
    "dropout": null,
    "unk_token": "[UNK]",
    "continuing_subword_prefix": null,
    "end_of_word_suffix": null,
    "fuse_unk": false,
    "byte_fallback": false,
    "ignore_merges": false,
    "vocab": {
      "[PAD]": 0,
      "[UNK]": 1,
      "[BOS]": 2,
      "[EOS]": 3,
      "\"": 4,
      "#": 5,
      "$": 6,
      "%": 7,
      "&": 8,
      "'": 9,
      "(": 10,
      ")": 11,
      "+": 12,
      ",": 13,
      "-": 14,
      ".": 15,
      "/": 16,
      "0": 17,
      "1": 18,
      "2": 19,
      "3": 20,
      "4": 21,
      "5": 22,
      "6": 23,
      "7": 24,
      "8": 25,
      "9": 26,
      ":": 27,
      ";": 28,
      "<": 29,
      "=": 30,
      "?": 31,
      "A": 32,
      "B": 33,
      "C": 34,
      "D": 35,
      "E": 36,
      "F": 37,
      "G": 38,
      "H": 39,
      "I": 40,
      "J": 41,
      "K": 42,
      "L": 43,
      "M": 44,
      "N": 45,
      "O": 46,
      "P": 47,
      "Q": 48,
      "R": 49,
      "S": 50,
      "T": 51,
      "U": 52,
      "V": 53,
      "W": 54,
      "X": 55,
      "Y": 56,
      "Z": 57,
      "[": 58,
      "^": 59,
      "_": 60,
      "`": 61,
      "a": 62,
      "b": 63,
      "c": 64,
      "d": 65,
      "e": 66,
      "f": 67,
      "g": 68,
      "h": 69,
      "i": 70,
      "j": 71,
      "k": 72,
      "l": 73,
      "m": 74,
      "n": 75,
      "o": 76,
      "p": 77,
      "q": 78,
      "r": 79,
      "s": 80,
      "t": 81,
      "u": 82,
      "v": 83,
      "w": 84,
      "x": 85,
      "y": 86,
      "z": 87,
      "{": 88,
      "}": 89,
      "ø": 90,
      "–": 91,
      "in": 92,
      "er": 93,
      "on": 94,
      "at": 95,
      "as": 96,
      "or": 97,
      "se": 98,
      "th": 99,
      "en": 100,
      "le": 101,
      "an": 102,
      "re": 103,
      "ing": 104,
      "Has": 105,
      "ion": 106,
      "ar": 107,
      "al": 108,
      "it": 109,
      "ou": 110,
      "st": 111,
      "be": 112,
      "Ca": 113,
      "om": 114,
      "is": 115,
      "ent": 116,
      "es": 117,
      "ab": 118,
      "the": 119,
      "ro": 120,
      "ation": 121,
      "ic": 122,
      "to": 123,
      "per": 124,
      "ed": 125,
      "able": 126,
      "sed": 127,
      "oc": 128,
      "Of": 129,
      "iv": 130,
      "HasP": 131,
      "ch": 132,
      "For": 133,
      "Used": 134,
      "UsedFor": 135,
      "of": 136,
      "Cap": 137,
      "ableOf": 138,
      "CapableOf": 139,
      "Is": 140,
      "IsA": 141,
      "ot": 142,
      "et": 143,
      "ocation": 144,
      "At": 145,
      "Location": 146,
      "AtLocation": 147,
      "vent": 148,
      "you": 149,
      "ce": 150,
      "Su": 151,
      "bevent": 152,
      "Subevent": 153,
      "ct": 154,
      "qu": 155,
      "use": 156,
      "ome": 157,
      "ite": 158,
      "ere": 159,
      "il": 160,
      "oo": 161,
      "HasSubevent": 162,
      "ty": 163,
      "ir": 164,
      "am": 165,
      "el": 166,
      "some": 167,
      "quis": 168,
      "rere": 169,
      "HasPrere": 170,
      "quisite": 171,
      "HasPrerequisite": 172,
      "for": 173,
      "un": 174,
      "uses": 175,
      "ay": 176,
      "pl": 177,
      "Causes": 178,
      "and": 179,
      "ad": 180,
      "ke": 181,
      "one": 182,
      "ol": 183,
      "ve": 184,
      "roper": 185,
      "roperty": 186,
      "HasProperty": 187,
      "ur": 188,
      "ig": 189,
      "id": 190,
      "ow": 191,
      "im": 192,
      "ire": 193,
      "son": 194,
      "sh": 195,
      "op": 196,
      "person": 197,
      "your": 198,
      "ge": 199,
      "all": 200,
      "pe": 201,
      "ha": 202,
      "ma": 203,
      "ra": 204,
      "te": 205,
      "um": 206,
      "ter": 207,
      "ated": 208,
      "go": 209,
      "ction": 210,
      "com": 211,
      "ta": 212,
      "esire": 213,
      "get": 214,
      "thing": 215,
      "Desire": 216,
      "fr": 217,
      "ate": 218,
      "con": 219,
      "igh": 220,
      "cl": 221,
      "us": 222,
      "ex": 223,
      "oal": 224,
      "ive": 225,
      "By": 226,
      "pa": 227,
      "otiv": 228,
      "atedBy": 229,
      "ood": 230,
      "Goal": 231,
      "Motiv": 232,
      "atedByGoal": 233,
      "MotivatedByGoal": 234,
      "ece": 235,
      "ver": 236,
      "fin": 237,
      "pro": 238,
      "he": 239,
      "li": 240,
      "ives": 241,
      "mo": 242,
      "fe": 243,
      "Action": 244,
      "Rece": 245,
      "ivesAction": 246,
      "ReceivesAction": 247,
      "di": 248,
      "de": 249,
      "ck": 250,
      "art": 251,
      "wi": 252,
      "ne": 253,
      "bu": 254,
      "ant": 255,
      "ook": 256,
      "su": 257,
      "oun": 258,
      "with": 259,
      "ight": 260,
      "end": 261,
      "HasA": 262,
      "dr": 263,
      "out": 264,
      "wor": 265,
      "ass": 266,
      "ard": 267,
      "have": 268,
      "ap": 269,
      "tr": 270,
      "pre": 271,
      "we": 272,
      "ine": 273,
      "Not": 274,
      "someone": 275,
      "bo": 276,
      "something": 277,
      "ment": 278,
      "play": 279,
      "ul": 280,
      "sp": 281,
      "Desires": 282,
      "ill": 283,
      "ast": 284,
      "ss": 285,
      "me": 286,
      "ore": 287,
      "ity": 288,
      "po": 289,
      "ther": 290,
      "man": 291,
      "la": 292,
      "str": 293,
      "wat": 294,
      "are": 295,
      "gr": 296,
      "ut": 297,
      "do": 298,
      "ice": 299,
      "ide": 300,
      "ly": 301,
      "wh": 302,
      "lo": 303,
      "car": 304,
      "up": 305,
      "ort": 306,
      "ess": 307,
      "ag": 308,
      "age": 309,
      "eat": 310,
      "ath": 311,
      "De": 312,
      "cle": 313,
      "ist": 314,
      "sc": 315,
      "ople": 316,
      "people": 317,
      "fined": 318,
      "As": 319,
      "ie": 320,
      "ase": 321,
      "Defined": 322,
      "DefinedAs": 323,
      "ph": 324,
      "make": 325,
      "comp": 326,
      "king": 327,
      "ers": 328,
      "co": 329,
      "ure": 330,
      "old": 331,
      "int": 332,
      "ish": 333,
      "air": 334,
      "ind": 335,
      "jo": 336,
      "CausesDesire": 337,
      "tra": 338,
      "good": 339,
      "br": 340,
      "em": 341,
      "ame": 342,
      "new": 343,
      "ac": 344,
      "ep": 345,
      "if": 346,
      "by": 347,
      "sen": 348,
      "ip": 349,
      "ber": 350,
      "ick": 351,
      "buy": 352,
      "ouse": 353,
      "ical": 354,
      "book": 355,
      "our": 356,
      "clo": 357,
      "other": 358,
      "ild": 359,
      "irst": 360,
      "bre": 361,
      "cr": 362,
      "way": 363,
      "ash": 364,
      "par": 365,
      "from": 366,
      "cer": 367,
      "form": 368,
      "ound": 369,
      "mar": 370,
      "work": 371,
      "ak": 372,
      "ach": 373,
      "cre": 374,
      "act": 375,
      "ball": 376,
      "kn": 377,
      "gh": 378,
      "ting": 379,
      "arn": 380,
      "ace": 381,
      "ell": 382,
      "wr": 383,
      "see": 384,
      "food": 385,
      "du": 386,
      "off": 387,
      "der": 388,
      "house": 389,
      "pr": 390,
      "tain": 391,
      "rest": 392,
      "own": 393,
      "water": 394,
      "ory": 395,
      "that": 396,
      "can": 397,
      "fl": 398,
      "hum": 399,
      "this": 400,
      "ance": 401,
      "take": 402,
      "mus": 403,
      "ise": 404,
      "ial": 405,
      "arm": 406,
      "find": 407,
      "ous": 408,
      "ink": 409,
      "ool": 410,
      "fri": 411,
      "ud": 412,
      "human": 413,
      "ang": 414,
      "bl": 415,
      "ies": 416,
      "ence": 417,
      "NotDesires": 418,
      "friend": 419,
      "alk": 420,
      "ile": 421,
      "paper": 422,
      "sa": 423,
      "che": 424,
      "comm": 425,
      "_1": 426,
      "je": 427,
      "learn": 428,
      "ff": 429,
      "read": 430,
      "room": 431,
      "ime": 432,
      "ear": 433,
      "ple": 434,
      "oney": 435,
      "First": 436,
      "HasFirst": 437,
      "row": 438,
      "HasFirstSubevent": 439,
      "sm": 440,
      "sel": 441,
      "watch": 442,
      "money": 443,
      "no": 444,
      "not": 445,
      "ue": 446,
      "vel": 447,
      "ree": 448,
      "very": 449,
      "about": 450,
      "ble": 451,
      "fun": 452,
      "gl": 453,
      "ld": 454,
      "ict": 455,
      "port": 456,
      "ving": 457,
      "ia": 458,
      "ong": 459,
      "store": 460,
      "NotCapableOf": 461,
      "many": 462,
      "ian": 463,
      "ket": 464,
      "bet": 465,
      "cor": 466,
      "sk": 467,
      "ser": 468,
      "dis": 469,
      "ca": 470,
      "come": 471,
      "col": 472,
      "light": 473,
      "vie": 474,
      "coun": 475,
      "vis": 476,
      "wa": 477,
      "iz": 478,
      "more": 479,
      "pen": 480,
      "run": 481,
      "Part": 482,
      "his": 483,
      "uter": 484,
      "than": 485,
      "PartOf": 486,
      "clean": 487,
      "show": 488,
      "exam": 489,
      "Last": 490,
      "ten": 491,
      "HasLast": 492,
      "plan": 493,
      "HasLastSubevent": 494,
      "know": 495,
      "music": 496,
      "cook": 497,
      "table": 498,
      "time": 499,
      "ary": 500,
      "tele": 501,
      "ob": 502,
      "their": 503,
      "ys": 504,
      "feel": 505,
      "computer": 506,
      "ain": 507,
      "ry": 508,
      "sy": 509,
      "ject": 510,
      "ba": 511,
      "spe": 512,
      "alth": 513,
      "them": 514,
      "ade": 515,
      "game": 516,
      "ough": 517,
      "child": 518,
      "place": 519,
      "urn": 520,
      "hair": 521,
      "sch": 522,
      "ating": 523,
      "let": 524,
      "shop": 525,
      "pat": 526,
      "sur": 527,
      "sw": 528,
      "urant": 529,
      "cur": 530,
      "day": 531,
      "gy": 532,
      "home": 533,
      "pt": 534,
      "sit": 535,
      "walk": 536,
      "stand": 537,
      "health": 538,
      "down": 539,
      "ll": 540,
      "inter": 541,
      "ock": 542,
      "NT": 543,
      "ient": 544,
      "ust": 545,
      "att": 546,
      "set": 547,
      "dog": 548,
      "ANT": 549,
      "QU": 550,
      "aurant": 551,
      "fish": 552,
      "look": 553,
      "led": 554,
      "ANT_": 555,
      "QUANT_": 556,
      "est": 557,
      "ign": 558,
      "restaurant": 559,
      "pu": 560,
      "pass": 561,
      "vi": 562,
      "press": 563,
      "mem": 564,
      "bus": 565,
      "cat": 566,
      "dre": 567,
      "fire": 568,
      "lar": 569,
      "ug": 570,
      "inn": 571,
      "open": 572,
      "going": 573,
      "ful": 574,
      "sent": 575,
      "high": 576,
      "into": 577,
      "sub": 578,
      "news": 579,
      "self": 580,
      "gre": 581,
      "hold": 582,
      "over": 583,
      "sing": 584,
      "drive": 585,
      "als": 586,
      "list": 587,
      "bar": 588,
      "dy": 589,
      "ger": 590,
      "hel": 591,
      "mat": 592,
      "les": 593,
      "state": 594,
      "become": 595,
      "break": 596,
      "school": 597,
      "card": 598,
      "des": 599,
      "hor": 600,
      "mon": 601,
      "its": 602,
      "need": 603,
      "pay": 604,
      "anim": 605,
      "key": 606,
      "getting": 607,
      "life": 608,
      "most": 609,
      "sport": 610,
      "gen": 611,
      "ho": 612,
      "has": 613,
      "land": 614,
      "wash": 615,
      "inform": 616,
      "ions": 617,
      "keep": 618,
      "world": 619,
      "av": 620,
      "gu": 621,
      "side": 622,
      "was": 623,
      "lect": 624,
      "stud": 625,
      "build": 626,
      "point": 627,
      "fil": 628,
      "line": 629,
      "num": 630,
      "will": 631,
      "anc": 632,
      "bed": 633,
      "chan": 634,
      "under": 635,
      "class": 636,
      "produ": 637,
      "try": 638,
      "gram": 639,
      "ey": 640,
      "give": 641,
      "low": 642,
      "live": 643,
      "pol": 644,
      "ors": 645,
      "ally": 646,
      "writ": 647,
      "vision": 648,
      "QUANT_O": 649,
      "cal": 650,
      "fam": 651,
      "hand": 652,
      "put": 653,
      "ses": 654,
      "enter": 655,
      "type": 656,
      "diff": 657,
      "meet": 658,
      "information": 659,
      "au": 660,
      "cut": 661,
      "med": 662,
      "tro": 663,
      "leep": 664,
      "another": 665,
      "iss": 666,
      "rain": 667,
      "move": 668,
      "write": 669,
      "television": 670,
      "base": 671,
      "city": 672,
      "ef": 673,
      "ric": 674,
      "soc": 675,
      "iver": 676,
      "iving": 677,
      "ily": 678,
      "plant": 679,
      "program": 680,
      "QUANT_O_1": 681,
      "fall": 682,
      "part": 683,
      "tw": 684,
      "war": 685,
      "any": 686,
      "too": 687,
      "exer": 688,
      "movie": 689,
      "law": 690,
      "fast": 691,
      "tre": 692,
      "ste": 693,
      "stre": 694,
      "word": 695,
      "small": 696,
      "her": 697,
      "long": 698,
      "so": 699,
      "ator": 700,
      "thr": 701,
      "rel": 702,
      "story": 703,
      "sho": 704,
      "ular": 705,
      "ather": 706,
      "check": 707,
      "large": 708,
      "bir": 709,
      "io": 710,
      "ping": 711,
      "ycle": 712,
      "box": 713,
      "sal": 714,
      "sleep": 715,
      "turn": 716,
      "there": 717,
      "test": 718,
      "like": 719,
      "dise": 720,
      "body": 721,
      "phone": 722,
      "joy": 723,
      "film": 724,
      "differ": 725,
      "bas": 726,
      "bath": 727,
      "ike": 728,
      "kill": 729,
      "ital": 730,
      "ations": 731,
      "paint": 732,
      "when": 733,
      "travel": 734,
      "office": 735,
      "hun": 736,
      "ience": 737,
      "sun": 738,
      "eng": 739,
      "stop": 740,
      "being": 741,
      "they": 742,
      "mail": 743,
      "board": 744,
      "phys": 745,
      "listen": 746,
      "help": 747,
      "exerc": 748,
      "af": 749,
      "hot": 750,
      "may": 751,
      "sn": 752,
      "hap": 753,
      "male": 754,
      "love": 755,
      "job": 756,
      "back": 757,
      "cour": 758,
      "ev": 759,
      "fre": 760,
      "hol": 761,
      "might": 762,
      "wind": 763,
      "iness": 764,
      "org": 765,
      "making": 766,
      "ult": 767,
      "cloth": 768,
      "fi": 769,
      "ri": 770,
      "wom": 771,
      "ross": 772,
      "chine": 773,
      "ower": 774,
      "having": 775,
      "eating": 776,
      "wait": 777,
      "through": 778,
      "bic": 779,
      "bag": 780,
      "gard": 781,
      "ious": 782,
      "lot": 783,
      "ugh": 784,
      "ination": 785,
      "leg": 786,
      "fru": 787,
      "drink": 788,
      "playing": 789,
      "lose": 790,
      "attend": 791,
      "cap": 792,
      "del": 793,
      "name": 794,
      "pet": 795,
      "ru": 796,
      "tle": 797,
      "ener": 798,
      "itch": 799,
      "rock": 800,
      "hear": 801,
      "head": 802,
      "dia": 803,
      "wear": 804,
      "laugh": 805,
      "ific": 806,
      "market": 807,
      "country": 808,
      "change": 809,
      "different": 810,
      "exercise": 811,
      "cent": 812,
      "cess": 813,
      "grow": 814,
      "my": 815,
      "met": 816,
      "spa": 817,
      "s_1": 818,
      "t_": 819,
      "concer": 820,
      "what": 821,
      "friends": 822,
      "object": 823,
      "patient": 824,
      "inner": 825,
      "eye": 826,
      "bicycle": 827,
      "how": 828,
      "iet": 829,
      "min": 830,
      "og": 831,
      "py": 832,
      "pur": 833,
      "sign": 834,
      "ual": 835,
      "were": 836,
      "ative": 837,
      "ens": 838,
      "enjoy": 839,
      "stor": 840,
      "ents": 841,
      "cell": 842,
      "sup": 843,
      "commun": 844,
      "glass": 845,
      "view": 846,
      "member": 847,
      "family": 848,
      "baseball": 849,
      "band": 850,
      "care": 851,
      "dra": 852,
      "hur": 853,
      "ness": 854,
      "sof": 855,
      "think": 856,
      "ition": 857,
      "import": 858,
      "ship": 859,
      "fect": 860,
      "but": 861,
      "post": 862,
      "who": 863,
      "clothe": 864,
      "number": 865,
      "disease": 866,
      "garden": 867,
      "ail": 868,
      "call": 869,
      "det": 870,
      "fo": 871,
      "pot": 872,
      "sol": 873,
      "sid": 874,
      "wood": 875,
      "start": 876,
      "oci": 877,
      "char": 878,
      "amp": 879,
      "unch": 880,
      "veget": 881,
      "express": 882,
      "apple": 883,
      "cancer": 884,
      "earth": 885,
      "diabet": 886,
      "ave": 887,
      "away": 888,
      "bad": 889,
      "bur": 890,
      "dinner": 891,
      "event": 892,
      "first": 893,
      "fact": 894,
      "gar": 895,
      "jum": 896,
      "ning": 897,
      "net": 898,
      "night": 899,
      "ts": 900,
      "tick": 901,
      "tell": 902,
      "used": 903,
      "well": 904,
      "warm": 905,
      "eric": 906,
      "ater": 907,
      "ature": 908,
      "ark": 909,
      "oup": 910,
      "tow": 911,
      "chil": 912,
      "teach": 913,
      "pare": 914,
      "dren": 915,
      "where": 916,
      "dress": 917,
      "newspaper": 918,
      "desk": 919,
      "organ": 920,
      "space": 921,
      "children": 922,
      "bor": 923,
      "cup": 924,
      "cold": 925,
      "fight": 926,
      "men": 927,
      "pict": 928,
      "vac": 929,
      "ons": 930,
      "road": 931,
      "irt": 932,
      "ely": 933,
      "machine": 934,
      "ument": 935,
      "things": 936,
      "ountain": 937,
      "associ": 938,
      "tru": 939,
      "present": 940,
      "cover": 941,
      "train": 942,
      "color": 943,
      "study": 944,
      "physical": 945,
      "energy": 946,
      "vegetable": 947,
      "diabetes": 948,
      "picture": 949,
      "elect": 950,
      "hard": 951,
      "swe": 952,
      "talk": 953,
      "ates": 954,
      "atta": 955,
      "chess": 956,
      "cept": 957,
      "item": 958,
      "eld": 959,
      "imin": 960,
      "tem": 961,
      "taking": 962,
      "contro": 963,
      "lie": 964,
      "park": 965,
      "ize": 966,
      "horse": 967,
      "writing": 968,
      "two": 969,
      "doc": 970,
      "every": 971,
      "fing": 972,
      "gain": 973,
      "hy": 974,
      "lit": 975,
      "por": 976,
      "seat": 977,
      "ings": 978,
      "arch": 979,
      "ould": 980,
      "ational": 981,
      "ply": 982,
      "weight": 983,
      "both": 984,
      "create": 985,
      "cord": 986,
      "swim": 987,
      "bird": 988,
      "woman": 989,
      "important": 990,
      "ib": 991,
      "mic": 992,
      "pop": 993,
      "tor": 994,
      "ved": 995,
      "instr": 996,
      "less": 997,
      "stay": 998,
      "impro": 999,
      "yourself": 1000,
      "main": 1001,
      "team": 1002,
      "die": 1003,
      "dec": 1004,
      "door": 1005,
      "anger": 1006,
      "fresh": 1007,
      "concert": 1008,
      "control": 1009,
      "cy": 1010,
      "ces": 1011,
      "gir": 1012,
      "mountain": 1013,
      "nice": 1014,
      "ring": 1015,
      "sound": 1016,
      "ank": 1017,
      "ans": 1018,
      "remember": 1019,
      "ality": 1020,
      "outh": 1021,
      "ics": 1022,
      "unk": 1023,
      "adv": 1024,
      "dry": 1025,
      "area": 1026,
      "commit": 1027,
      "plane": 1028,
      "animal": 1029,
      "basket": 1030,
      "clothes": 1031,
      "communic": 1032,
      "draw": 1033,
      "cand": 1034,
      "cross": 1035,
      "ft": 1036,
      "just": 1037,
      "rad": 1038,
      "year": 1039,
      "ont": 1040,
      "athe": 1041,
      "ask": 1042,
      "sex": 1043,
      "stu": 1044,
      "stem": 1045,
      "ote": 1046,
      "cond": 1047,
      "expl": 1048,
      "fee": 1049,
      "group": 1050,
      "activ": 1051,
      "cause": 1052,
      "ledge": 1053,
      "treat": 1054,
      "foot": 1055,
      "jump": 1056,
      "ticket": 1057,
      "girl": 1058,
      "Made": 1059,
      "fly": 1060,
      "want": 1061,
      "ins": 1062,
      "only": 1063,
      "asure": 1064,
      "alco": 1065,
      "beer": 1066,
      "chair": 1067,
      "que": 1068,
      "ope": 1069,
      "comfor": 1070,
      "pain": 1071,
      "heat": 1072,
      "send": 1073,
      "knowledge": 1074,
      "spec": 1075,
      "surf": 1076,
      "window": 1077,
      "hurt": 1078,
      "MadeOf": 1079,
      "bal": 1080,
      "cash": 1081,
      "gas": 1082,
      "mu": 1083,
      "mall": 1084,
      "pi": 1085,
      "tire": 1086,
      "ute": 1087,
      "val": 1088,
      "aste": 1089,
      "contain": 1090,
      "heart": 1091,
      "prepare": 1092,
      "spend": 1093,
      "party": 1094,
      "system": 1095,
      "letter": 1096,
      "healthy": 1097,
      "business": 1098,
      "subject": 1099,
      "vacation": 1100,
      "flo": 1101,
      "found": 1102,
      "free": 1103,
      "gun": 1104,
      "mr": 1105,
      "os": 1106,
      "ward": 1107,
      "ines": 1108,
      "resp": 1109,
      "ison": 1110,
      "tool": 1111,
      "quire": 1112,
      "else": 1113,
      "add": 1114,
      "gover": 1115,
      "mother": 1116,
      "death": 1117,
      "sul": 1118,
      "tract": 1119,
      "close": 1120,
      "better": 1121,
      "viol": 1122,
      "00": 1123,
      "az": 1124,
      "ake": 1125,
      "bi": 1126,
      "bot": 1127,
      "cof": 1128,
      "case": 1129,
      "den": 1130,
      "ium": 1131,
      "mas": 1132,
      "ny": 1133,
      "rent": 1134,
      "tree": 1135,
      "answ": 1136,
      "ities": 1137,
      "ich": 1138,
      "perform": 1139,
      "chr": 1140,
      "ract": 1141,
      "clim": 1142,
      "using": 1143,
      "pair": 1144,
      "vers": 1145,
      "strike": 1146,
      "bring": 1147,
      "crimin": 1148,
      "seeing": 1149,
      "humans": 1150,
      "blem": 1151,
      "product": 1152,
      "tooth": 1153,
      "happy": 1154,
      "instrument": 1155,
      "alcohol": 1156,
      "answer": 1157,
      "farm": 1158,
      "gro": 1159,
      "ker": 1160,
      "som": 1161,
      "ton": 1162,
      "uc": 1163,
      "ustr": 1164,
      "vice": 1165,
      "incl": 1166,
      "ery": 1167,
      "lead": 1168,
      "lebr": 1169,
      "red": 1170,
      "reg": 1171,
      "rele": 1172,
      "record": 1173,
      "been": 1174,
      "these": 1175,
      "ivers": 1176,
      "often": 1177,
      "celebr": 1178,
      "quest": 1179,
      "oose": 1180,
      "imes": 1181,
      "race": 1182,
      "problem": 1183,
      "sure": 1184,
      "ween": 1185,
      "lax": 1186,
      "idea": 1187,
      "compet": 1188,
      "buying": 1189,
      "between": 1190,
      "publ": 1191,
      "dream": 1192,
      "animals": 1193,
      "course": 1194,
      "fruit": 1195,
      "patients": 1196,
      "sweet": 1197,
      "attack": 1198,
      "doctor": 1199,
      "activity": 1200,
      "govern": 1201,
      "bro": 1202,
      "ced": 1203,
      "hom": 1204,
      "mor": 1205,
      "od": 1206,
      "power": 1207,
      "ride": 1208,
      "ven": 1209,
      "ves": 1210,
      "vol": 1211,
      "win": 1212,
      "ond": 1213,
      "ony": 1214,
      "ench": 1215,
      "relax": 1216,
      "ster": 1217,
      "star": 1218,
      "bel": 1219,
      "ism": 1220,
      "icle": 1221,
      "ices": 1222,
      "top": 1223,
      "iron": 1224,
      "olog": 1225,
      "uring": 1226,
      "mag": 1227,
      "compl": 1228,
      "pack": 1229,
      "prov": 1230,
      "prote": 1231,
      "liqu": 1232,
      "bul": 1233,
      "suc": 1234,
      "suit": 1235,
      "outside": 1236,
      "NotHasProperty": 1237,
      "boat": 1238,
      "player": 1239,
      "ground": 1240,
      "ists": 1241,
      "serve": 1242,
      "shower": 1243,
      "produce": 1244,
      "after": 1245,
      "field": 1246,
      "truth": 1247,
      "improve": 1248,
      "coffee": 1249,
      "criminal": 1250,
      "19": 1251,
      "ape": 1252,
      "action": 1253,
      "burn": 1254,
      "cil": 1255,
      "gif": 1256,
      "lunch": 1257,
      "nam": 1258,
      "national": 1259,
      "sat": 1260,
      "zz": 1261,
      "ason": 1262,
      "sea": 1263,
      "reach": 1264,
      "station": 1265,
      "rope": 1266,
      "toge": 1267,
      "fore": 1268,
      "front": 1269,
      "exper": 1270,
      "web": 1271,
      "company": 1272,
      "entertain": 1273,
      "treatment": 1274,
      "gift": 1275,
      "together": 1276,
      "cab": 1277,
      "cool": 1278,
      "ele": 1279,
      "ean": 1280,
      "ham": 1281,
      "had": 1282,
      "jur": 1283,
      "jud": 1284,
      "kitch": 1285,
      "mind": 1286,
      "made": 1287,
      "ner": 1288,
      "round": 1289,
      "tv": 1290,
      "ining": 1291,
      "inet": 1292,
      "incre": 1293,
      "leave": 1294,
      "rec": 1295,
      "require": 1296,
      "ited": 1297,
      "stage": 1298,
      "quiet": 1299,
      "ility": 1300,
      "une": 1301,
      "dio": 1302,
      "appe": 1303,
      "mean": 1304,
      "comple": 1305,
      "airplane": 1306,
      "bru": 1307,
      "acter": 1308,
      "prom": 1309,
      "match": 1310,
      "understand": 1311,
      "effect": 1312,
      "street": 1313,
      "ength": 1314,
      "finger": 1315,
      "bab": 1316,
      "big": 1317,
      "equ": 1318,
      "far": 1319,
      "fol": 1320,
      "gra": 1321,
      "hist": 1322,
      "hang": 1323,
      "ix": 1324,
      "last": 1325,
      "mer": 1326,
      "mil": 1327,
      "mess": 1328,
      "pian": 1329,
      "pract": 1330,
      "rid": 1331,
      "right": 1332,
      "sum": 1333,
      "smo": 1334,
      "tu": 1335,
      "tin": 1336,
      "tom": 1337,
      "ork": 1338,
      "rece": 1339,
      "resul": 1340,
      "around": 1341,
      "quick": 1342,
      "americ": 1343,
      "tex": 1344,
      "tape": 1345,
      "propo": 1346,
      "drug": 1347,
      "tran": 1348,
      "stru": 1349,
      "grass": 1350,
      "white": 1351,
      "agree": 1352,
      "scre": 1353,
      "science": 1354,
      "scope": 1355,
      "emy": 1356,
      "others": 1357,
      "learning": 1358,
      "sell": 1359,
      "sky": 1360,
      "visit": 1361,
      "examination": 1362,
      "feeling": 1363,
      "catch": 1364,
      "social": 1365,
      "hunger": 1366,
      "even": 1367,
      "capital": 1368,
      "vegetables": 1369,
      "decide": 1370,
      "radio": 1371,
      "grocer": 1372,
      "kitchen": 1373,
      "aut": 1374,
      "bol": 1375,
      "bers": 1376,
      "dict": 1377,
      "ek": 1378,
      "each": 1379,
      "gg": 1380,
      "gather": 1381,
      "ife": 1382,
      "ju": 1383,
      "lin": 1384,
      "lang": 1385,
      "mot": 1386,
      "muse": 1387,
      "miss": 1388,
      "ng": 1389,
      "non": 1390,
      "oper": 1391,
      "oid": 1392,
      "ps": 1393,
      "pick": 1394,
      "tal": 1395,
      "uage": 1396,
      "inst": 1397,
      "order": 1398,
      "ref": 1399,
      "stock": 1400,
      "ocean": 1401,
      "chur": 1402,
      "etimes": 1403,
      "irty": 1404,
      "tern": 1405,
      "conf": 1406,
      "moving": 1407,
      "clear": 1408,
      "sense": 1409,
      "mark": 1410,
      "common": 1411,
      "corn": 1412,
      "skill": 1413,
      "pencil": 1414,
      "sym": 1415,
      "great": 1416,
      "engine": 1417,
      "basketball": 1418,
      "much": 1419,
      "piece": 1420,
      "sometimes": 1421,
      "public": 1422,
      "piano": 1423,
      "museum": 1424,
      "church": 1425,
      "cular": 1426,
      "div": 1427,
      "dance": 1428,
      "fit": 1429,
      "hit": 1430,
      "here": 1431,
      "kind": 1432,
      "mouth": 1433,
      "nor": 1434,
      "ris": 1435,
      "sim": 1436,
      "vas": 1437,
      "wal": 1438,
      "whe": 1439,
      "err": 1440,
      "erator": 1441,
      "ional": 1442,
      "arr": 1443,
      "stra": 1444,
      "song": 1445,
      "shar": 1446,
      "short": 1447,
      "frig": 1448,
      "libr": 1449,
      "cks": 1450,
      "ants": 1451,
      "pret": 1452,
      "lack": 1453,
      "strength": 1454,
      "gry": 1455,
      "carry": 1456,
      "again": 1457,
      "emot": 1458,
      "breathe": 1459,
      "flow": 1460,
      "reading": 1461,
      "watching": 1462,
      "cookie": 1463,
      "current": 1464,
      "washing": 1465,
      "student": 1466,
      "building": 1467,
      "purch": 1468,
      "soft": 1469,
      "town": 1470,
      "electric": 1471,
      "climb": 1472,
      "government": 1473,
      "language": 1474,
      "Am": 1475,
      "ale": 1476,
      "bow": 1477,
      "cul": 1478,
      "dol": 1479,
      "dish": 1480,
      "during": 1481,
      "dirty": 1482,
      "file": 1483,
      "ier": 1484,
      "jor": 1485,
      "kid": 1486,
      "living": 1487,
      "mal": 1488,
      "mid": 1489,
      "pool": 1490,
      "say": 1491,
      "wed": 1492,
      "ze": 1493,
      "ones": 1494,
      "ane": 1495,
      "ann": 1496,
      "anal": 1497,
      "refrig": 1498,
      "oud": 1499,
      "chip": 1500,
      "idge": 1501,
      "shel": 1502,
      "term": 1503,
      "god": 1504,
      "moon": 1505,
      "pres": 1506,
      "NotIsA": 1507,
      "NotHasA": 1508,
      "spring": 1509,
      "posit": 1510,
      "books": 1511,
      "crash": 1512,
      "crime": 1513,
      "cred": 1514,
      "knife": 1515,
      "prison": 1516,
      "flat": 1517,
      "flower": 1518,
      "blood": 1519,
      "early": 1520,
      "examine": 1521,
      "speak": 1522,
      "shopping": 1523,
      "deter": 1524,
      "sident": 1525,
      "character": 1526,
      "associated": 1527,
      "little": 1528,
      "special": 1529,
      "container": 1530,
      "iversity": 1531,
      "cabinet": 1532,
      "judge": 1533,
      "appear": 1534,
      "grocery": 1535,
      "against": 1536,
      "bill": 1537,
      "cas": 1538,
      "danger": 1539,
      "earn": 1540,
      "face": 1541,
      "gue": 1542,
      "lim": 1543,
      "lock": 1544,
      "ming": 1545,
      "mam": 1546,
      "ose": 1547,
      "ped": 1548,
      "pul": 1549,
      "sad": 1550,
      "taste": 1551,
      "ude": 1552,
      "ually": 1553,
      "vcr": 1554,
      "vict": 1555,
      "wall": 1556,
      "ina": 1557,
      "inve": 1558,
      "ata": 1559,
      "atory": 1560,
      "asing": 1561,
      "redu": 1562,
      "stick": 1563,
      "isf": 1564,
      "ising": 1565,
      "roll": 1566,
      "chem": 1567,
      "chang": 1568,
      "ety": 1569,
      "young": 1570,
      "els": 1571,
      "plate": 1572,
      "ident": 1573,
      "imag": 1574,
      "she": 1575,
      "share": 1576,
      "hale": 1577,
      "umb": 1578,
      "comb": 1579,
      "consid": 1580,
      "fear": 1581,
      "dist": 1582,
      "devel": 1583,
      "apy": 1584,
      "trial": 1585,
      "weed": 1586,
      "ments": 1587,
      "sphere": 1588,
      "score": 1589,
      "parent": 1590,
      "count": 1591,
      "planet": 1592,
      "dogs": 1593,
      "sentence": 1594,
      "cards": 1595,
      "hosp": 1596,
      "avoid": 1597,
      "ancing": 1598,
      "polit": 1599,
      "soccer": 1600,
      "shoes": 1601,
      "birth": 1602,
      "rub": 1603,
      "lieve": 1604,
      "maintain": 1605,
      "football": 1606,
      "floor": 1607,
      "liquid": 1608,
      "satisf": 1609,
      "jury": 1610,
      "brush": 1611,
      "follow": 1612,
      "quickly": 1613,
      "risk": 1614,
      "refrigerator": 1615,
      "credit": 1616,
      "consider": 1617,
      "develop": 1618,
      "ack": 1619,
      "cus": 1620,
      "don": 1621,
      "dire": 1622,
      "date": 1623,
      "fat": 1624,
      "gn": 1625,
      "giving": 1626,
      "ible": 1627,
      "kit": 1628,
      "lab": 1629,
      "late": 1630,
      "pan": 1631,
      "tar": 1632,
      "wet": 1633,
      "wine": 1634,
      "ying": 1635,
      "inse": 1636,
      "onic": 1637,
      "ato": 1638,
      "enemy": 1639,
      "ley": 1640,
      "level": 1641,
      "ange": 1642,
      "stat": 1643,
      "theater": 1644,
      "ician": 1645,
      "choose": 1646,
      "fort": 1647,
      "ung": 1648,
      "ural": 1649,
      "peace": 1650,
      "major": 1651,
      "ctions": 1652,
      "coming": 1653,
      "clin": 1654,
      "ext": 1655,
      "dest": 1656,
      "super": 1657,
      "spir": 1658,
      "astic": 1659,
      "meat": 1660,
      "meal": 1661,
      "laun": 1662,
      "lake": 1663,
      "ution": 1664,
      "scr": 1665,
      "bread": 1666,
      "musical": 1667,
      "blue": 1668,
      "rown": 1669,
      "smell": 1670,
      "cake": 1671,
      "pens": 1672,
      "tenn": 1673,
      "haircut": 1674,
      "internet": 1675,
      "puzz": 1676,
      "green": 1677,
      "design": 1678,
      "gener": 1679,
      "relig": 1680,
      "shoe": 1681,
      "centr": 1682,
      "metal": 1683,
      "iety": 1684,
      "teacher": 1685,
      "ception": 1686,
      "christ": 1687,
      "success": 1688,
      "experience": 1689,
      "history": 1690,
      "library": 1691,
      "R_1": 1692,
      "bra": 1693,
      "bage": 1694,
      "bank": 1695,
      "cing": 1696,
      "cam": 1697,
      "cra": 1698,
      "eas": 1699,
      "loc": 1700,
      "mass": 1701,
      "mult": 1702,
      "oy": 1703,
      "ogy": 1704,
      "past": 1705,
      "pie": 1706,
      "rom": 1707,
      "river": 1708,
      "san": 1709,
      "sour": 1710,
      "tie": 1711,
      "would": 1712,
      "whale": 1713,
      "yard": 1714,
      "invol": 1715,
      "erial": 1716,
      "asse": 1717,
      "search": 1718,
      "engl": 1719,
      "lege": 1720,
      "real": 1721,
      "reality": 1722,
      "itary": 1723,
      "best": 1724,
      "ockey": 1725,
      "erest": 1726,
      "somewhere": 1727,
      "idence": 1728,
      "ters": 1729,
      "tax": 1730,
      "tage": 1731,
      "clue": 1732,
      "dies": 1733,
      "working": 1734,
      "trash": 1735,
      "president": 1736,
      "boy": 1737,
      "measure": 1738,
      "poker": 1739,
      "stration": 1740,
      "while": 1741,
      "jog": 1742,
      "join": 1743,
      "emp": 1744,
      "clothing": 1745,
      "cry": 1746,
      "ways": 1747,
      "housework": 1748,
      "muscle": 1749,
      "saf": 1750,
      "ffic": 1751,
      "funny": 1752,
      "wake": 1753,
      "ized": 1754,
      "running": 1755,
      "telephone": 1756,
      "spect": 1757,
      "ought": 1758,
      "QUANT_R_1": 1759,
      "passing": 1760,
      "subway": 1761,
      "breakfast": 1762,
      "waste": 1763,
      "calcul": 1764,
      "plants": 1765,
      "stress": 1766,
      "soap": 1767,
      "bathroom": 1768,
      "micro": 1769,
      "explain": 1770,
      "violin": 1771,
      "celebrate": 1772,
      "practice": 1773,
      "purchase": 1774,
      "invest": 1775,
      "insect": 1776,
      "tennis": 1777,
      "puzzle": 1778,
      "In": 1779,
      "bat": 1780,
      "ci": 1781,
      "cow": 1782,
      "cult": 1783,
      "dro": 1784,
      "data": 1785,
      "eth": 1786,
      "fa": 1787,
      "fur": 1788,
      "gree": 1789,
      "hill": 1790,
      "ied": 1791,
      "kes": 1792,
      "kiss": 1793,
      "mis": 1794,
      "mad": 1795,
      "nu": 1796,
      "oil": 1797,
      "sl": 1798,
      "sist": 1799,
      "vote": 1800,
      "viron": 1801,
      "wel": 1802,
      "zoo": 1803,
      "inking": 1804,
      "asses": 1805,
      "those": 1806,
      "environ": 1807,
      "stair": 1808,
      "step": 1809,
      "beg": 1810,
      "beach": 1811,
      "before": 1812,
      "abbre": 1813,
      "theat": 1814,
      "icide": 1815,
      "ically": 1816,
      "toile": 1817,
      "quil": 1818,
      "useful": 1819,
      "forest": 1820,
      "imm": 1821,
      "shape": 1822,
      "contin": 1823,
      "lift": 1824,
      "few": 1825,
      "def": 1826,
      "deal": 1827,
      "assist": 1828,
      "weather": 1829,
      "week": 1830,
      "pose": 1831,
      "grand": 1832,
      "grind": 1833,
      "ages": 1834,
      "interest": 1835,
      "joke": 1836,
      "army": 1837,
      "smile": 1838,
      "skin": 1839,
      "discover": 1840,
      "cleaning": 1841,
      "syn": 1842,
      "looking": 1843,
      "memory": 1844,
      "material": 1845,
      "hole": 1846,
      "avy": 1847,
      "poll": 1848,
      "police": 1849,
      "words": 1850,
      "hotel": 1851,
      "snow": 1852,
      "fix": 1853,
      "drawer": 1854,
      "comfortable": 1855,
      "includ": 1856,
      "release": 1857,
      "question": 1858,
      "provid": 1859,
      "protect": 1860,
      "increase": 1861,
      "complex": 1862,
      "graph": 1863,
      "message": 1864,
      "vascular": 1865,
      "Americ": 1866,
      "shelf": 1867,
      "hospital": 1868,
      "safety": 1869,
      "abbrevi": 1870,
      "Un": 1871,
      "bon": 1872,
      "boo": 1873,
      "bind": 1874,
      "brain": 1875,
      "cop": 1876,
      "crow": 1877,
      "dle": 1878,
      "desire": 1879,
      "egg": 1880,
      "fu": 1881,
      "hat": 1882,
      "hour": 1883,
      "hockey": 1884,
      "ith": 1885,
      "lu": 1886,
      "lung": 1887,
      "nature": 1888,
      "next": 1889,
      "pin": 1890,
      "sand": 1891,
      "tent": 1892,
      "tall": 1893,
      "vide": 1894,
      "york": 1895,
      "zer": 1896,
      "inc": 1897,
      "inside": 1898,
      "atmo": 1899,
      "ases": 1900,
      "secur": 1901,
      "ense": 1902,
      "ana": 1903,
      "remove": 1904,
      "itar": 1905,
      "states": 1906,
      "bee": 1907,
      "omb": 1908,
      "omat": 1909,
      "island": 1910,
      "ability": 1911,
      "roy": 1912,
      "perfor": 1913,
      "edom": 1914,
      "ames": 1915,
      "force": 1916,
      "university": 1917,
      "ado": 1918,
      "ology": 1919,
      "veh": 1920,
      "tear": 1921,
      "tech": 1922,
      "paid": 1923,
      "prof": 1924,
      "process": 1925,
      "female": 1926,
      "distr": 1927,
      "suicide": 1928,
      "drunk": 1929,
      "apart": 1930,
      "pread": 1931,
      "illustr": 1932,
      "therapy": 1933,
      "manage": 1934,
      "strate": 1935,
      "which": 1936,
      "loved": 1937,
      "cardio": 1938,
      "athon": 1939,
      "ief": 1940,
      "compan": 1941,
      "cost": 1942,
      "airport": 1943,
      "bridge": 1944,
      "iful": 1945,
      "closet": 1946,
      "parking": 1947,
      "marathon": 1948,
      "finding": 1949,
      "pleasure": 1950,
      "nose": 1951,
      "note": 1952,
      "fund": 1953,
      "glue": 1954,
      "ski": 1955,
      "serv": 1956,
      "service": 1957,
      "telescope": 1958,
      "surpr": 1959,
      "inning": 1960,
      "full": 1961,
      "submar": 1962,
      "keeping": 1963,
      "guitar": 1964,
      "numbers": 1965,
      "classical": 1966,
      "meeting": 1967,
      "society": 1968,
      "falling": 1969,
      "tware": 1970,
      "lawn": 1971,
      "longer": 1972,
      "killing": 1973,
      "snake": 1974,
      "hearing": 1975,
      "laughter": 1976,
      "storm": 1977,
      "support": 1978,
      "software": 1979,
      "butter": 1980,
      "soldi": 1981,
      "popul": 1982,
      "communicate": 1983,
      "candle": 1984,
      "comfort": 1985,
      "bottle": 1986,
      "complic": 1987,
      "baby": 1988,
      "military": 1989,
      "smoke": 1990,
      "result": 1991,
      "text": 1992,
      "transport": 1993,
      "struct": 1994,
      "dangerous": 1995,
      "birthday": 1996,
      "kitten": 1997,
      "environment": 1998,
      "toilet": 1999,
      "video": 2000,
      "atmosphere": 2001,
      "management": 2002,
      "cardiovascular": 2003,
      "The": 2004,
      "aid": 2005,
      "aver": 2006,
      "black": 2007,
      "cast": 2008,
      "center": 2009,
      "dark": 2010,
      "dirt": 2011,
      "fle": 2012,
      "fab": 2013,
      "fill": 2014,
      "fla": 2015,
      "fair": 2016,
      "four": 2017,
      "fail": 2018,
      "gi": 2019,
      "ged": 2020,
      "gold": 2021,
      "hn": 2022,
      "him": 2023,
      "hall": 2024,
      "jap": 2025,
      "ken": 2026,
      "ling": 2027,
      "mine": 2028,
      "nes": 2029,
      "nic": 2030,
      "oon": 2031,
      "pon": 2032,
      "poc": 2033,
      "path": 2034,
      "paste": 2035,
      "ror": 2036,
      "ren": 2037,
      "sis": 2038,
      "site": 2039,
      "sil": 2040,
      "sus": 2041,
      "sick": 2042,
      "ub": 2043,
      "wing": 2044,
      "wide": 2045,
      "yell": 2046,
      "zard": 2047,
      "season": 2048,
      "throw": 2049,
      "least": 2050,
      "antage": 2051,
      "report": 2052,
      "return": 2053,
      "review": 2054,
      "repair": 2055,
      "reception": 2056,
      "itate": 2057,
      "ouch": 2058,
      "ouble": 2059,
      "sty": 2060,
      "stab": 2061,
      "beaut": 2062,
      "believe": 2063,
      "educ": 2064,
      "ivid": 2065,
      "chat": 2066,
      "ctor": 2067,
      "fork": 2068,
      "plastic": 2069,
      "image": 2070,
      "oppon": 2071,
      "contem": 2072,
      "clock": 2073,
      "usion": 2074,
      "usually": 2075,
      "vert": 2076,
      "heavy": 2077,
      "decor": 2078,
      "device": 2079,
      "article": 2080,
      "ney": 2081,
      "neigh": 2082,
      "antic": 2083,
      "endar": 2084,
      "driving": 2085,
      "bob": 2086,
      "poss": 2087,
      "mance": 2088,
      "strong": 2089,
      "coin": 2090,
      "coat": 2091,
      "acc": 2092,
      "across": 2093,
      "marry": 2094,
      "knit": 2095,
      "dust": 2096,
      "sail": 2097,
      "safe": 2098,
      "college": 2099,
      "countr": 2100,
      "wave": 2101,
      "thank": 2102,
      "examining": 2103,
      "sych": 2104,
      "speed": 2105,
      "pattern": 2106,
      "pub": 2107,
      "eyes": 2108,
      "calendar": 2109,
      "austr": 2110,
      "effort": 2111,
      "partic": 2112,
      "lawy": 2113,
      "relation": 2114,
      "listening": 2115,
      "deliver": 2116,
      "storage": 2117,
      "cells": 2118,
      "supply": 2119,
      "burger": 2120,
      "garbage": 2121,
      "association": 2122,
      "electr": 2123,
      "advantage": 2124,
      "communication": 2125,
      "crossword": 2126,
      "justice": 2127,
      "surface": 2128,
      "respons": 2129,
      "leader": 2130,
      "compete": 2131,
      "ological": 2132,
      "magaz": 2133,
      "bulb": 2134,
      "receive": 2135,
      "flowers": 2136,
      "electricity": 2137,
      "chips": 2138,
      "chemical": 2139,
      "labor": 2140,
      "target": 2141,
      "theatre": 2142,
      "immune": 2143,
      "performance": 2144,
      "complications": 2145,
      "fabric": 2146,
      "beautiful": 2147,
      "Ne": 2148,
      "aw": 2149,
      "ax": 2150,
      "bin": 2151,
      "bomb": 2152,
      "cu": 2153,
      "cig": 2154,
      "could": 2155,
      "dine": 2156,
      "fro": 2157,
      "fool": 2158,
      "fav": 2159,
      "gus": 2160,
      "har": 2161,
      "harm": 2162,
      "kely": 2163,
      "ler": 2164,
      "lon": 2165,
      "mur": 2166,
      "mex": 2167,
      "mouse": 2168,
      "nut": 2169,
      "nia": 2170,
      "ok": 2171,
      "pit": 2172,
      "pend": 2173,
      "rit": 2174,
      "squ": 2175,
      "six": 2176,
      "spread": 2177,
      "tion": 2178,
      "tim": 2179,
      "tte": 2180,
      "tour": 2181,
      "uba": 2182,
      "urope": 2183,
      "vit": 2184,
      "ino": 2185,
      "ering": 2186,
      "ased": 2187,
      "orche": 2188,
      "sew": 2189,
      "sever": 2190,
      "three": 2191,
      "ening": 2192,
      "enough": 2193,
      "anut": 2194,
      "reproduce": 2195,
      "arter": 2196,
      "ali": 2197,
      "along": 2198,
      "oul": 2199,
      "stamp": 2200,
      "bean": 2201,
      "becoming": 2202,
      "ision": 2203,
      "ention": 2204,
      "ental": 2205,
      "ica": 2206,
      "edu": 2207,
      "chick": 2208,
      "iratory": 2209,
      "unt": 2210,
      "united": 2211,
      "ploy": 2212,
      "igan": 2213,
      "impair": 2214,
      "personal": 2215,
      "allen": 2216,
      "allow": 2217,
      "pect": 2218,
      "peanut": 2219,
      "map": 2220,
      "raise": 2221,
      "tail": 2222,
      "french": 2223,
      "condu": 2224,
      "contract": 2225,
      "convers": 2226,
      "convict": 2227,
      "club": 2228,
      "expens": 2229,
      "lip": 2230,
      "likely": 2231,
      "mov": 2232,
      "degree": 2233,
      "wife": 2234,
      "ount": 2235,
      "ards": 2236,
      "apply": 2237,
      "trip": 2238,
      "trans": 2239,
      "prevent": 2240,
      "weap": 2241,
      "mechan": 2242,
      "poem": 2243,
      "scient": 2244,
      "individ": 2245,
      "john": 2246,
      "employ": 2247,
      "parents": 2248,
      "creating": 2249,
      "wrong": 2250,
      "duck": 2251,
      "flu": 2252,
      "flame": 2253,
      "blow": 2254,
      "save": 2255,
      "glasses": 2256,
      "discus": 2257,
      "collect": 2258,
      "izing": 2259,
      "gym": 2260,
      "standing": 2261,
      "attle": 2262,
      "memor": 2263,
      "highway": 2264,
      "gress": 2265,
      "barber": 2266,
      "horses": 2267,
      "keyboard": 2268,
      "called": 2269,
      "famous": 2270,
      "medic": 2271,
      "rich": 2272,
      "anything": 2273,
      "steak": 2274,
      "salt": 2275,
      "diseases": 2276,
      "based": 2277,
      "sunset": 2278,
      "court": 2279,
      "objects": 2280,
      "dete": 2281,
      "organize": 2282,
      "presents": 2283,
      "stuff": 2284,
      "studies": 2285,
      "condition": 2286,
      "girls": 2287,
      "sending": 2288,
      "gastr": 2289,
      "spending": 2290,
      "respiratory": 2291,
      "products": 2292,
      "include": 2293,
      "morning": 2294,
      "package": 2295,
      "american": 2296,
      "proposal": 2297,
      "wheel": 2298,
      "pressure": 2299,
      "sheet": 2300,
      "rubber": 2301,
      "religion": 2302,
      "christmas": 2303,
      "empty": 2304,
      "including": 2305,
      "crowd": 2306,
      "security": 2307,
      "vehicle": 2308,
      "techn": 2309,
      "illustrate": 2310,
      "surprise": 2311,
      "pocket": 2312,
      "opponent": 2313,
      "austral": 2314,
      "magazine": 2315,
      "cigare": 2316,
      "orchestra": 2317,
      "impairment": 2318,
      "St": 2319,
      "aim": 2320,
      "ben": 2321,
      "bit": 2322,
      "bid": 2323,
      "bond": 2324,
      "brown": 2325,
      "cir": 2326,
      "cust": 2327,
      "camp": 2328,
      "da": 2329,
      "dancing": 2330,
      "fer": 2331,
      "fal": 2332,
      "glo": 2333,
      "hu": 2334,
      "lan": 2335,
      "mile": 2336,
      "mug": 2337,
      "nel": 2338,
      "now": 2339,
      "nap": 2340,
      "ox": 2341,
      "oice": 2342,
      "pic": 2343,
      "psych": 2344,
      "sion": 2345,
      "same": 2346,
      "tic": 2347,
      "tur": 2348,
      "tum": 2349,
      "var": 2350,
      "invent": 2351,
      "atic": 2352,
      "oring": 2353,
      "orce": 2354,
      "separ": 2355,
      "angry": 2356,
      "reason": 2357,
      "itute": 2358,
      "bear": 2359,
      "beha": 2360,
      "bever": 2361,
      "issu": 2362,
      "roof": 2363,
      "ican": 2364,
      "ctal": 2365,
      "illi": 2366,
      "amin": 2367,
      "plat": 2368,
      "ada": 2369,
      "urb": 2370,
      "iday": 2371,
      "imum": 2372,
      "impress": 2373,
      "shap": 2374,
      "shirt": 2375,
      "rap": 2376,
      "conta": 2377,
      "consum": 2378,
      "extra": 2379,
      "verdict": 2380,
      "lief": 2381,
      "deb": 2382,
      "dead": 2383,
      "demon": 2384,
      "neg": 2385,
      "bush": 2386,
      "such": 2387,
      "without": 2388,
      "driver": 2389,
      "dromat": 2390,
      "orectal": 2391,
      "grade": 2392,
      "doors": 2393,
      "cars": 2394,
      "ipment": 2395,
      "bert": 2396,
      "breath": 2397,
      "cru": 2398,
      "creature": 2399,
      "blad": 2400,
      "said": 2401,
      "jewel": 2402,
      "smart": 2403,
      "function": 2404,
      "fungus": 2405,
      "display": 2406,
      "colorectal": 2407,
      "ization": 2408,
      "musician": 2409,
      "cooking": 2410,
      "obtain": 2411,
      "sitting": 2412,
      "also": 2413,
      "statement": 2414,
      "month": 2415,
      "monkey": 2416,
      "sports": 2417,
      "guil": 2418,
      "sidewalk": 2419,
      "ances": 2420,
      "underground": 2421,
      "lower": 2422,
      "writer": 2423,
      "written": 2424,
      "auth": 2425,
      "medical": 2426,
      "iverse": 2427,
      "shoot": 2428,
      "checkbook": 2429,
      "painting": 2430,
      "hungry": 2431,
      "evidence": 2432,
      "rier": 2433,
      "women": 2434,
      "legal": 2435,
      "attending": 2436,
      "deli": 2437,
      "ification": 2438,
      "itional": 2439,
      "potato": 2440,
      "charge": 2441,
      "events": 2442,
      "dressing": 2443,
      "born": 2444,
      "cupboard": 2445,
      "liter": 2446,
      "popular": 2447,
      "years": 2448,
      "tired": 2449,
      "farmer": 2450,
      "questions": 2451,
      "homer": 2452,
      "relaxation": 2453,
      "stars": 2454,
      "provide": 2455,
      "hamburger": 2456,
      "quietly": 2457,
      "equipment": 2458,
      "america": 2459,
      "drugs": 2460,
      "screw": 2461,
      "juice": 2462,
      "linen": 2463,
      "talking": 2464,
      "symbol": 2465,
      "errand": 2466,
      "pretend": 2467,
      "bowl": 2468,
      "dollar": 2469,
      "anese": 2470,
      "position": 2471,
      "determine": 2472,
      "guest": 2473,
      "political": 2474,
      "destroy": 2475,
      "supermarket": 2476,
      "laundromat": 2477,
      "source": 2478,
      "calculator": 2479,
      "stairs": 2480,
      "quilt": 2481,
      "assistance": 2482,
      "pollution": 2483,
      "profess": 2484,
      "apartment": 2485,
      "submarine": 2486,
      "soldier": 2487,
      "yellow": 2488,
      "style": 2489,
      "neighbor": 2490,
      "accident": 2491,
      "lawyer": 2492,
      "several": 2493,
      "conversation": 2494,
      "expensive": 2495,
      "movies": 2496,
      "gastric": 2497,
      "cigarette": 2498,
      "custom": 2499,
      "false": 2500,
      "behavi": 2501,
      "10": 2502,
      "CR": 2503,
      "Ch": 2504,
      "aq": 2505,
      "bble": 2506,
      "bike": 2507,
      "broad": 2508,
      "cro": 2509,
      "cot": 2510,
      "ds": 2511,
      "dom": 2512,
      "dam": 2513,
      "dig": 2514,
      "dive": 2515,
      "dece": 2516,
      "econ": 2517,
      "east": 2518,
      "eag": 2519,
      "foc": 2520,
      "fid": 2521,
      "fart": 2522,
      "gol": 2523,
      "gage": 2524,
      "hal": 2525,
      "hood": 2526,
      "ii": 2527,
      "ior": 2528,
      "junk": 2529,
      "lla": 2530,
      "loud": 2531,
      "ms": 2532,
      "mit": 2533,
      "mir": 2534,
      "mill": 2535,
      "mell": 2536,
      "must": 2537,
      "nick": 2538,
      "oto": 2539,
      "pad": 2540,
      "punch": 2541,
      "ran": 2542,
      "rate": 2543,
      "sam": 2544,
      "tip": 2545,
      "ware": 2546,
      "wag": 2547,
      "wage": 2548,
      "indi": 2549,
      "onto": 2550,
      "atch": 2551,
      "attem": 2552,
      "orth": 2553,
      "second": 2554,
      "ene": 2555,
      "reat": 2556,
      "itor": 2557,
      "ites": 2558,
      "itive": 2559,
      "stom": 2560,
      "because": 2561,
      "belief": 2562,
      "isbee": 2563,
      "rot": 2564,
      "rose": 2565,
      "icial": 2566,
      "tob": 2567,
      "toy": 2568,
      "today": 2569,
      "ival": 2570,
      "ived": 2571,
      "ots": 2572,
      "otic": 2573,
      "ets": 2574,
      "etic": 2575,
      "quality": 2576,
      "elines": 2577,
      "fornia": 2578,
      "universe": 2579,
      "plac": 2580,
      "adow": 2581,
      "vey": 2582,
      "shine": 2583,
      "shut": 2584,
      "shark": 2585,
      "opport": 2586,
      "gest": 2587,
      "teeth": 2588,
      "umbre": 2589,
      "compare": 2590,
      "frisbee": 2591,
      "conne": 2592,
      "consc": 2593,
      "clip": 2594,
      "cloud": 2595,
      "exp": 2596,
      "exist": 2597,
      "fine": 2598,
      "project": 2599,
      "liber": 2600,
      "lizard": 2601,
      "diag": 2602,
      "dem": 2603,
      "sugar": 2604,
      "appro": 2605,
      "tri": 2606,
      "true": 2607,
      "mental": 2608,
      "poor": 2609,
      "strip": 2610,
      "doing": 2611,
      "log": 2612,
      "load": 2613,
      "carto": 2614,
      "scuba": 2615,
      "older": 2616,
      "ishing": 2617,
      "ishment": 2618,
      "industr": 2619,
      "track": 2620,
      "iff": 2621,
      "breast": 2622,
      "marri": 2623,
      "cream": 2624,
      "ducks": 2625,
      "print": 2626,
      "iled": 2627,
      "saw": 2628,
      "selves": 2629,
      "nothing": 2630,
      "nosis": 2631,
      "skate": 2632,
      "caused": 2633,
      "exams": 2634,
      "tables": 2635,
      "themselves": 2636,
      "patch": 2637,
      "patience": 2638,
      "intervent": 2639,
      "attention": 2640,
      "passage": 2641,
      "singing": 2642,
      "breakdown": 2643,
      "paying": 2644,
      "gene": 2645,
      "hose": 2646,
      "guid": 2647,
      "guard": 2648,
      "buildings": 2649,
      "ancy": 2650,
      "bedroom": 2651,
      "movement": 2652,
      "steal": 2653,
      "salad": 2654,
      "stopping": 2655,
      "mayor": 2656,
      "happ": 2657,
      "iousness": 2658,
      "fruits": 2659,
      "growing": 2660,
      "minimum": 2661,
      "potent": 2662,
      "factor": 2663,
      "factors": 2664,
      "garage": 2665,
      "fighting": 2666,
      "items": 2667,
      "fingers": 2668,
      "gaining": 2669,
      "swimming": 2670,
      "advance": 2671,
      "value": 2672,
      "master": 2673,
      "toothpaste": 2674,
      "homes": 2675,
      "opera": 2676,
      "divorce": 2677,
      "walking": 2678,
      "arrive": 2679,
      "sharp": 2680,
      "emotion": 2681,
      "middle": 2682,
      "analys": 2683,
      "changing": 2684,
      "satisfy": 2685,
      "icians": 2686,
      "clinical": 2687,
      "central": 2688,
      "easy": 2689,
      "drop": 2690,
      "japanese": 2691,
      "particular": 2692,
      "relationship": 2693,
      "New": 2694,
      "weapon": 2695,
      "individual": 2696,
      "medicine": 2697,
      "behavior": 2698,
      "econom": 2699,
      "golf": 2700,
      "opportun": 2701,
      "consciousness": 2702,
      "20": 2703,
      "200": 2704,
      "30": 2705,
      "North": 2706,
      "York": 2707,
      "ai": 2708,
      "acle": 2709,
      "ahead": 2710,
      "bone": 2711,
      "bass": 2712,
      "bathe": 2713,
      "battle": 2714,
      "cou": 2715,
      "cure": 2716,
      "cock": 2717,
      "dome": 2718,
      "dining": 2719,
      "ese": 2720,
      "effic": 2721,
      "fan": 2722,
      "fic": 2723,
      "fig": 2724,
      "five": 2725,
      "fut": 2726,
      "fac": 2727,
      "father": 2728,
      "gor": 2729,
      "gall": 2730,
      "groom": 2731,
      "games": 2732,
      "hes": 2733,
      "hike": 2734,
      "hib": 2735,
      "iat": 2736,
      "ised": 2737,
      "istr": 2738,
      "jar": 2739,
      "jail": 2740,
      "kis": 2741,
      "lat": 2742,
      "lor": 2743,
      "luc": 2744,
      "loose": 2745,
      "oe": 2746,
      "ole": 2747,
      "pas": 2748,
      "pes": 2749,
      "pun": 2750,
      "pant": 2751,
      "pill": 2752,
      "pup": 2753,
      "rab": 2754,
      "sin": 2755,
      "sor": 2756,
      "sink": 2757,
      "south": 2758,
      "tch": 2759,
      "tort": 2760,
      "task": 2761,
      "touch": 2762,
      "vir": 2763,
      "vous": 2764,
      "vital": 2765,
      "won": 2766,
      "wit": 2767,
      "wild": 2768,
      "winning": 2769,
      "ym": 2770,
      "inion": 2771,
      "inal": 2772,
      "infl": 2773,
      "once": 2774,
      "attract": 2775,
      "asth": 2776,
      "seed": 2777,
      "thought": 2778,
      "eness": 2779,
      "ences": 2780,
      "lection": 2781,
      "rem": 2782,
      "redi": 2783,
      "aris": 2784,
      "arrest": 2785,
      "alone": 2786,
      "ston": 2787,
      "stic": 2788,
      "still": 2789,
      "bell": 2790,
      "oms": 2791,
      "entr": 2792,
      "icy": 2793,
      "icate": 2794,
      "icult": 2795,
      "chance": 2796,
      "challen": 2797,
      "eter": 2798,
      "ceed": 2799,
      "cted": 2800,
      "ila": 2801,
      "illegal": 2802,
      "ird": 2803,
      "iraq": 2804,
      "among": 2805,
      "adult": 2806,
      "adhes": 2807,
      "kept": 2808,
      "imp": 2809,
      "imony": 2810,
      "should": 2811,
      "oph": 2812,
      "opes": 2813,
      "opinion": 2814,
      "mach": 2815,
      "umn": 2816,
      "coma": 2817,
      "frame": 2818,
      "concentr": 2819,
      "ighter": 2820,
      "exe": 2821,
      "progress": 2822,
      "moth": 2823,
      "moder": 2824,
      "depend": 2825,
      "near": 2826,
      "drinking": 2827,
      "appet": 2828,
      "trad": 2829,
      "trade": 2830,
      "trunk": 2831,
      "pregn": 2832,
      "west": 2833,
      "illa": 2834,
      "meth": 2835,
      "string": 2836,
      "grad": 2837,
      "lob": 2838,
      "loss": 2839,
      "losing": 2840,
      "photo": 2841,
      "ured": 2842,
      "ished": 2843,
      "acco": 2844,
      "ifer": 2845,
      "crab": 2846,
      "certain": 2847,
      "akes": 2848,
      "known": 2849,
      "pray": 2850,
      "price": 2851,
      "printer": 2852,
      "owner": 2853,
      "sau": 2854,
      "sale": 2855,
      "chef": 2856,
      "please": 2857,
      "noise": 2858,
      "bleed": 2859,
      "serving": 2860,
      "cav": 2861,
      "counter": 2862,
      "tens": 2863,
      "schedu": 2864,
      "surv": 2865,
      "surround": 2866,
      "homework": 2867,
      "ption": 2868,
      "push": 2869,
      "higher": 2870,
      "host": 2871,
      "points": 2872,
      "hands": 2873,
      "handle": 2874,
      "difficult": 2875,
      "audi": 2876,
      "augh": 2877,
      "partment": 2878,
      "laws": 2879,
      "stretch": 2880,
      "testimony": 2881,
      "happen": 2882,
      "evil": 2883,
      "freedom": 2884,
      "chinese": 2885,
      "frustration": 2886,
      "rule": 2887,
      "rocks": 2888,
      "laughing": 2889,
      "purse": 2890,
      "purpose": 2891,
      "enjoyment": 2892,
      "storing": 2893,
      "cellular": 2894,
      "expressing": 2895,
      "expression": 2896,
      "factory": 2897,
      "towel": 2898,
      "dresser": 2899,
      "pictures": 2900,
      "attach": 2901,
      "everyone": 2902,
      "everything": 2903,
      "sounds": 2904,
      "candid": 2905,
      "sexual": 2906,
      "studio": 2907,
      "queen": 2908,
      "tools": 2909,
      "bible": 2910,
      "bottom": 2911,
      "performed": 2912,
      "chronic": 2913,
      "climate": 2914,
      "celebrating": 2915,
      "stern": 2916,
      "topic": 2917,
      "succeed": 2918,
      "nervous": 2919,
      "recycle": 2920,
      "promise": 2921,
      "smoking": 2922,
      "tub": 2923,
      "wallet": 2924,
      "kids": 2925,
      "analy": 2926,
      "appearance": 2927,
      "mammoth": 2928,
      "pull": 2929,
      "reduce": 2930,
      "spirit": 2931,
      "general": 2932,
      "craft": 2933,
      "romantic": 2934,
      "england": 2935,
      "english": 2936,
      "culture": 2937,
      "begin": 2938,
      "American": 2939,
      "abbreviated": 2940,
      "United": 2941,
      "booth": 2942,
      "district": 2943,
      "population": 2944,
      "silver": 2945,
      "education": 2946,
      "possib": 2947,
      "favor": 2948,
      "murder": 2949,
      "chicken": 2950,
      "scientist": 2951,
      "platform": 2952,
      "bladder": 2953,
      "jewelry": 2954,
      "attempt": 2955,
      "stomach": 2956,
      "tobacco": 2957,
      "umbrella": 2958,
      "cartoon": 2959,
      "patchwork": 2960,
      "happiness": 2961,
      "gallery": 2962,
      "asthma": 2963,
      "''": 2964,
      "TV": 2965,
      "ah": 2966,
      "aff": 2967,
      "aving": 2968,
      "award": 2969,
      "awake": 2970,
      "bite": 2971,
      "cable": 2972,
      "cage": 2973,
      "cath": 2974,
      "did": 2975,
      "drain": 2976,
      "diver": 2977,
      "dumb": 2978,
      "daugh": 2979,
      "email": 2980,
      "fra": 2981,
      "fate": 2982,
      "gon": 2983,
      "ging": 2984,
      "hon": 2985,
      "hab": 2986,
      "hug": 2987,
      "ipe": 2988,
      "ield": 2989,
      "ique": 2990,
      "jan": 2991,
      "jam": 2992,
      "jack": 2993,
      "ko": 2994,
      "lay": 2995,
      "lug": 2996,
      "lighter": 2997,
      "mood": 2998,
      "mort": 2999,
      "nat": 3000,
      "nas": 3001,
      "obe": 3002,
      "ove": 3003,
      "property": 3004,
      "pum": 3005,
      "rat": 3006,
      "ray": 3007,
      "rise": 3008,
      "rug": 3009,
      "spl": 3010,
      "sort": 3011,
      "slow": 3012,
      "tast": 3013,
      "tles": 3014,
      "vin": 3015,
      "vor": 3016,
      "van": 3017,
      "voice": 3018,
      "wish": 3019,
      "wrest": 3020,
      "winter": 3021,
      "ygen": 3022,
      "zy": 3023,
      "zor": 3024,
      "zone": 3025,
      "inary": 3026,
      "injury": 3027,
      "asant": 3028,
      "asleep": 3029,
      "ord": 3030,
      "orge": 3031,
      "thom": 3032,
      "thes": 3033,
      "thinking": 3034,
      "threat": 3035,
      "encing": 3036,
      "lete": 3037,
      "anch": 3038,
      "rect": 3039,
      "reli": 3040,
      "ress": 3041,
      "replace": 3042,
      "recent": 3043,
      "represent": 3044,
      "remain": 3045,
      "reward": 3046,
      "revol": 3047,
      "research": 3048,
      "respect": 3049,
      "ingredi": 3050,
      "arab": 3051,
      "alp": 3052,
      "alle": 3053,
      "alive": 3054,
      "alarm": 3055,
      "iter": 3056,
      "itation": 3057,
      "itus": 3058,
      "stad": 3059,
      "stone": 3060,
      "stap": 3061,
      "beat": 3062,
      "below": 3063,
      "oma": 3064,
      "isco": 3065,
      "enty": 3066,
      "essent": 3067,
      "rob": 3068,
      "role": 3069,
      "ico": 3070,
      "token": 3071,
      "ively": 3072,
      "chop": 3073,
      "quarter": 3074,
      "ili": 3075,
      "ilar": 3076,
      "ament": 3077,
      "amuse": 3078,
      "amount": 3079,
      "elace": 3080,
      "ford": 3081,
      "forward": 3082,
      "una": 3083,
      "union": 3084,
      "unite": 3085,
      "plug": 3086,
      "ady": 3087,
      "advert": 3088,
      "olate": 3089,
      "urin": 3090,
      "imary": 3091,
      "shave": 3092,
      "shake": 3093,
      "opt": 3094,
      "oppo": 3095,
      "george": 3096,
      "raph": 3097,
      "razor": 3098,
      "tea": 3099,
      "umber": 3100,
      "goal": 3101,
      "compost": 3102,
      "france": 3103,
      "conse": 3104,
      "conqu": 3105,
      "concl": 3106,
      "contra": 3107,
      "confl": 3108,
      "pac": 3109,
      "pag": 3110,
      "page": 3111,
      "final": 3112,
      "finish": 3113,
      "prog": 3114,
      "feed": 3115,
      "feet": 3116,
      "dev": 3117,
      "deco": 3118,
      "artist": 3119,
      "neck": 3120,
      "bute": 3121,
      "ighten": 3122,
      "dram": 3123,
      "appl": 3124,
      "appre": 3125,
      "appoint": 3126,
      "tray": 3127,
      "trouble": 3128,
      "western": 3129,
      "boot": 3130,
      "boil": 3131,
      "ulate": 3132,
      "posed": 3133,
      "manag": 3134,
      "label": 3135,
      "carpet": 3136,
      "carbon": 3137,
      "carrier": 3138,
      "upon": 3139,
      "agent": 3140,
      "agents": 3141,
      "phy": 3142,
      "phil": 3143,
      "cogn": 3144,
      "inton": 3145,
      "airline": 3146,
      "aircraft": 3147,
      "index": 3148,
      "trail": 3149,
      "traffic": 3150,
      "goods": 3151,
      "brand": 3152,
      "emer": 3153,
      "account": 3154,
      "ifying": 3155,
      "sensit": 3156,
      "iple": 3157,
      "creation": 3158,
      "active": 3159,
      "offer": 3160,
      "primary": 3161,
      "resting": 3162,
      "muslim": 3163,
      "arms": 3164,
      "angle": 3165,
      "chew": 3166,
      "cheese": 3167,
      "jean": 3168,
      "ready": 3169,
      "rooms": 3170,
      "novel": 3171,
      "caf": 3172,
      "lighten": 3173,
      "example": 3174,
      "computers": 3175,
      "hairdresser": 3176,
      "curious": 3177,
      "situ": 3178,
      "healthily": 3179,
      "downtown": 3180,
      "international": 3181,
      "vious": 3182,
      "members": 3183,
      "opening": 3184,
      "holder": 3185,
      "holding": 3186,
      "matter": 3187,
      "mostly": 3188,
      "lecture": 3189,
      "cali": 3190,
      "cutting": 3191,
      "trop": 3192,
      "trophy": 3193,
      "programs": 3194,
      "steam": 3195,
      "hero": 3196,
      "related": 3197,
      "shoelace": 3198,
      "checkup": 3199,
      "testing": 3200,
      "bathing": 3201,
      "affect": 3202,
      "backpack": 3203,
      "holiday": 3204,
      "waiting": 3205,
      "concern": 3206,
      "howl": 3207,
      "mini": 3208,
      "signific": 3209,
      "viewing": 3210,
      "bandage": 3211,
      "starting": 3212,
      "bury": 3213,
      "organism": 3214,
      "truck": 3215,
      "colorado": 3216,
      "porch": 3217,
      "mich": 3218,
      "popcorn": 3219,
      "communicating": 3220,
      "balance": 3221,
      "freezer": 3222,
      "addict": 3223,
      "bringing": 3224,
      "answering": 3225,
      "problems": 3226,
      "brother": 3227,
      "morbid": 3228,
      "protection": 3229,
      "liquor": 3230,
      "199": 3231,
      "elements": 3232,
      "recipe": 3233,
      "complete": 3234,
      "promot": 3235,
      "understanding": 3236,
      "effects": 3237,
      "equal": 3238,
      "milk": 3239,
      "summer": 3240,
      "tomato": 3241,
      "texas": 3242,
      "struction": 3243,
      "agreement": 3244,
      "gging": 3245,
      "motor": 3246,
      "motel": 3247,
      "institute": 3248,
      "sympt": 3249,
      "engineer": 3250,
      "north": 3251,
      "simple": 3252,
      "carrying": 3253,
      "emotions": 3254,
      "washington": 3255,
      "wedd": 3256,
      "pressed": 3257,
      "mammal": 3258,
      "imagination": 3259,
      "maintaining": 3260,
      "development": 3261,
      "direct": 3262,
      "status": 3263,
      "destination": 3264,
      "laundry": 3265,
      "scratch": 3266,
      "brake": 3267,
      "involve": 3268,
      "involved": 3269,
      "assess": 3270,
      "nutr": 3271,
      "sister": 3272,
      "continu": 3273,
      "defend": 3274,
      "abbreviate": 3275,
      "luck": 3276,
      "strategy": 3277,
      "notebook": 3278,
      "transportation": 3279,
      "giant": 3280,
      "nesday": 3281,
      "contemplate": 3282,
      "countries": 3283,
      "responsib": 3284,
      "vitamin": 3285,
      "detect": 3286,
      "australia": 3287,
      "global": 3288,
      "oxygen": 3289,
      "separate": 3290,
      "beverage": 3291,
      "issue": 3292,
      "guilty": 3293,
      "neighborhood": 3294,
      "customer": 3295,
      "cotton": 3296,
      "eagle": 3297,
      "half": 3298,
      "mellitus": 3299,
      "nickname": 3300,
      "wagon": 3301,
      "indian": 3302,
      "guidelines": 3303,
      "potential": 3304,
      "couple": 3305,
      "future": 3306,
      "kissing": 3307,
      "puppy": 3308,
      "wonder": 3309,
      "remote": 3310,
      "challenge": 3311,
      "adhesive": 3312,
      "execut": 3313,
      "method": 3314,
      "favorite": 3315,
      "daughter": 3316,
      "luggage": 3317,
      "natural": 3318,
      "thomas": 3319,
      "opposite": 3320,
      "conclusion": 3321,
      "conflict": 3322,
      "appreci": 3323,
      "sensitive": 3324,
      "morbidity": 3325,
      "100": 3326,
      "33": 3327,
      "50": 3328,
      "Cre": 3329,
      "Col": 3330,
      "En": 3331,
      "Europe": 3332,
      "Mr": 3333,
      "VCR": 3334,
      "``": 3335,
      "aer": 3336,
      "afr": 3337,
      "bt": 3338,
      "bun": 3339,
      "bach": 3340,
      "bought": 3341,
      "cin": 3342,
      "civ": 3343,
      "coal": 3344,
      "cue": 3345,
      "cities": 3346,
      "dou": 3347,
      "done": 3348,
      "dimin": 3349,
      "double": 3350,
      "ech": 3351,
      "ever": 3352,
      "eight": 3353,
      "europe": 3354,
      "fare": 3355,
      "fold": 3356,
      "gle": 3357,
      "gel": 3358,
      "gly": 3359,
      "gious": 3360,
      "gaz": 3361,
      "ggest": 3362,
      "hus": 3363,
      "hide": 3364,
      "hind": 3365,
      "iot": 3366,
      "iated": 3367,
      "iate": 3368,
      "ither": 3369,
      "iking": 3370,
      "iance": 3371,
      "lion": 3372,
      "lam": 3373,
      "lap": 3374,
      "later": 3375,
      "nation": 3376,
      "nail": 3377,
      "oven": 3378,
      "pal": 3379,
      "pig": 3380,
      "pile": 3381,
      "pond": 3382,
      "ram": 3383,
      "rist": 3384,
      "ssed": 3385,
      "soup": 3386,
      "size": 3387,
      "soul": 3388,
      "tit": 3389,
      "ted": 3390,
      "tific": 3391,
      "tune": 3392,
      "uum": 3393,
      "uate": 3394,
      "va": 3395,
      "vet": 3396,
      "virt": 3397,
      "wid": 3398,
      "wound": 3399,
      "wheat": 3400,
      "wich": 3401,
      "yarn": 3402,
      "yest": 3403,
      "yield": 3404,
      "za": 3405,
      "zen": 3406,
      "inser": 3407,
      "income": 3408,
      "ert": 3409,
      "eral": 3410,
      "erence": 3411,
      "erday": 3412,
      "aster": 3413,
      "ores": 3414,
      "orrow": 3415,
      "orange": 3416,
      "orbit": 3417,
      "sey": 3418,
      "then": 3419,
      "thick": 3420,
      "thirst": 3421,
      "ency": 3422,
      "lemon": 3423,
      "leaf": 3424,
      "anket": 3425,
      "rebel": 3426,
      "relieve": 3427,
      "recogn": 3428,
      "arg": 3429,
      "aries": 3430,
      "arian": 3431,
      "almost": 3432,
      "always": 3433,
      "itself": 3434,
      "outer": 3435,
      "stup": 3436,
      "stain": 3437,
      "beta": 3438,
      "beaver": 3439,
      "behind": 3440,
      "omark": 3441,
      "isy": 3442,
      "esus": 3443,
      "abol": 3444,
      "rod": 3445,
      "rodu": 3446,
      "robert": 3447,
      "icles": 3448,
      "toe": 3449,
      "perature": 3450,
      "edy": 3451,
      "ables": 3452,
      "china": 3453,
      "cel": 3454,
      "irm": 3455,
      "amble": 3456,
      "somebody": 3457,
      "forces": 3458,
      "unger": 3459,
      "adap": 3460,
      "adjust": 3461,
      "ademy": 3462,
      "kee": 3463,
      "urance": 3464,
      "igation": 3465,
      "idiot": 3466,
      "owl": 3467,
      "shed": 3468,
      "shot": 3469,
      "shell": 3470,
      "shamp": 3471,
      "ophy": 3472,
      "georg": 3473,
      "pest": 3474,
      "pebble": 3475,
      "hael": 3476,
      "rail": 3477,
      "rack": 3478,
      "tee": 3479,
      "ume": 3480,
      "termin": 3481,
      "terror": 3482,
      "comes": 3483,
      "franc": 3484,
      "const": 3485,
      "concept": 3486,
      "clar": 3487,
      "clinton": 3488,
      "exc": 3489,
      "exhib": 3490,
      "financ": 3491,
      "prove": 3492,
      "hemat": 3493,
      "heater": 3494,
      "heifer": 3495,
      "lips": 3496,
      "mole": 3497,
      "moset": 3498,
      "fection": 3499,
      "died": 3500,
      "deep": 3501,
      "depress": 3502,
      "artific": 3503,
      "artists": 3504,
      "bud": 3505,
      "buck": 3506,
      "suff": 3507,
      "suggest": 3508,
      "ounce": 3509,
      "ended": 3510,
      "endurance": 3511,
      "drum": 3512,
      "drill": 3513,
      "apies": 3514,
      "trust": 3515,
      "previous": 3516,
      "weas": 3517,
      "boston": 3518,
      "played": 3519,
      "spot": 3520,
      "meas": 3521,
      "meadow": 3522,
      "areas": 3523,
      "grill": 3524,
      "utter": 3525,
      "ideas": 3526,
      "lover": 3527,
      "athlet": 3528,
      "istic": 3529,
      "scape": 3530,
      "scale": 3531,
      "scopes": 3532,
      "coach": 3533,
      "introdu": 3534,
      "brit": 3535,
      "brass": 3536,
      "branch": 3537,
      "acy": 3538,
      "accur": 3539,
      "access": 3540,
      "accord": 3541,
      "accompl": 3542,
      "ify": 3543,
      "ipes": 3544,
      "ashing": 3545,
      "certific": 3546,
      "marmoset": 3547,
      "worker": 3548,
      "workers": 3549,
      "aches": 3550,
      "creek": 3551,
      "actor": 3552,
      "balloon": 3553,
      "foods": 3554,
      "official": 3555,
      "prior": 3556,
      "canoe": 3557,
      "flour": 3558,
      "flirt": 3559,
      "block": 3560,
      "blanket": 3561,
      "papers": 3562,
      "sales": 3563,
      "chest": 3564,
      "ears": 3565,
      "plement": 3566,
      "pleasing": 3567,
      "pleasant": 3568,
      "notes": 3569,
      "glish": 3570,
      "serious": 3571,
      "colour": 3572,
      "colors": 3573,
      "column": 3574,
      "county": 3575,
      "penn": 3576,
      "planning": 3577,
      "knowing": 3578,
      "cookies": 3579,
      "yside": 3580,
      "switch": 3581,
      "standard": 3582,
      "fishing": 3583,
      "cats": 3584,
      "single": 3585,
      "held": 3586,
      "cardinal": 3587,
      "worldwide": 3588,
      "guide": 3589,
      "students": 3590,
      "numer": 3591,
      "ancient": 3592,
      "channel": 3593,
      "underwater": 3594,
      "typewriter": 3595,
      "auto": 3596,
      "basement": 3597,
      "stein": 3598,
      "stream": 3599,
      "soil": 3600,
      "relative": 3601,
      "salon": 3602,
      "sleeping": 3603,
      "sunglasses": 3604,
      "mailbox": 3605,
      "physic": 3606,
      "snore": 3607,
      "courty": 3608,
      "lots": 3609,
      "delic": 3610,
      "myth": 3611,
      "signs": 3612,
      "ensive": 3613,
      "enjoying": 3614,
      "suppl": 3615,
      "careful": 3616,
      "detail": 3617,
      "solve": 3618,
      "solid": 3619,
      "apples": 3620,
      "burden": 3621,
      "jumping": 3622,
      "tickle": 3623,
      "desktop": 3624,
      "boredom": 3625,
      "menu": 3626,
      "vacuum": 3627,
      "associate": 3628,
      "training": 3629,
      "hardware": 3630,
      "sweat": 3631,
      "ceptive": 3632,
      "tempor": 3633,
      "temperature": 3634,
      "hydr": 3635,
      "birds": 3636,
      "michael": 3637,
      "instru": 3638,
      "teams": 3639,
      "cycl": 3640,
      "remembering": 3641,
      "committing": 3642,
      "specific": 3643,
      "valley": 3644,
      "biological": 3645,
      "biomark": 3646,
      "competitive": 3647,
      "powerful": 3648,
      "belt": 3649,
      "bullet": 3650,
      "reaching": 3651,
      "element": 3652,
      "increasing": 3653,
      "effective": 3654,
      "babies": 3655,
      "riding": 3656,
      "tomorrow": 3657,
      "results": 3658,
      "selling": 3659,
      "evening": 3660,
      "bolt": 3661,
      "divide": 3662,
      "normal": 3663,
      "similar": 3664,
      "sharing": 3665,
      "sharpen": 3666,
      "pretty": 3667,
      "doll": 3668,
      "determin": 3669,
      "pedal": 3670,
      "distance": 3671,
      "trials": 3672,
      "satisfaction": 3673,
      "scrip": 3674,
      "successful": 3675,
      "local": 3676,
      "multiple": 3677,
      "pieces": 3678,
      "insects": 3679,
      "further": 3680,
      "America": 3681,
      "University": 3682,
      "binder": 3683,
      "fuel": 3684,
      "distri": 3685,
      "companion": 3686,
      "structure": 3687,
      "average": 3688,
      "countryside": 3689,
      "patterns": 3690,
      "frog": 3691,
      "harp": 3692,
      "mexico": 3693,
      "conduct": 3694,
      "fluid": 3695,
      "conditioner": 3696,
      "huge": 3697,
      "miles": 3698,
      "tumor": 3699,
      "contact": 3700,
      "negative": 3701,
      "breathing": 3702,
      "author": 3703,
      "broadcast": 3704,
      "focus": 3705,
      "mirror": 3706,
      "places": 3707,
      "connection": 3708,
      "diagnosis": 3709,
      "marriage": 3710,
      "interventions": 3711,
      "opportunity": 3712,
      "ficus": 3713,
      "figure": 3714,
      "lucid": 3715,
      "tortilla": 3716,
      "adults": 3717,
      "impasse": 3718,
      "modern": 3719,
      "lobby": 3720,
      "photograph": 3721,
      "audience": 3722,
      "wrestle": 3723,
      "ingredient": 3724,
      "alpha": 3725,
      "stadium": 3726,
      "essential": 3727,
      "amusement": 3728,
      "advertise": 3729,
      "contraceptive": 3730,
      "california": 3731,
      "significant": 3732,
      "michigan": 3733,
      "CreatedBy": 3734,
      "English": 3735,
      "civil": 3736,
      "doubt": 3737,
      "husband": 3738,
      "yesterday": 3739,
      "stupid": 3740,
      "shampoo": 3741,
      "georgia": 3742,
      "francisco": 3743,
      "financial": 3744,
      "artificial": 3745,
      "biomarkers": 3746,
      "12": 3747,
      "14": 3748,
      "17": 3749,
      "AL": 3750,
      "Ac": 3751,
      "Austr": 3752,
      "Bo": 3753,
      "Go": 3754,
      "Man": 3755,
      "May": 3756,
      "Mich": 3757,
      "Park": 3758,
      "South": 3759,
      "Wh": 3760,
      "Wed": 3761,
      "ago": 3762,
      "aud": 3763,
      "aque": 3764,
      "aunt": 3765,
      "bish": 3766,
      "bound": 3767,
      "barn": 3768,
      "brow": 3769,
      "bacter": 3770,
      "billi": 3771,
      "cere": 3772,
      "came": 3773,
      "cise": 3774,
      "cial": 3775,
      "dan": 3776,
      "dand": 3777,
      "dim": 3778,
      "ea": 3779,
      "ease": 3780,
      "fel": 3781,
      "fence": 3782,
      "furn": 3783,
      "gin": 3784,
      "ges": 3785,
      "giv": 3786,
      "gap": 3787,
      "grain": 3788,
      "hire": 3789,
      "hio": 3790,
      "hiking": 3791,
      "ibe": 3792,
      "iform": 3793,
      "ially": 3794,
      "jer": 3795,
      "jet": 3796,
      "jour": 3797,
      "jured": 3798,
      "jesus": 3799,
      "ks": 3800,
      "kin": 3801,
      "kar": 3802,
      "kil": 3803,
      "lind": 3804,
      "lens": 3805,
      "lines": 3806,
      "lady": 3807,
      "mc": 3808,
      "mom": 3809,
      "motiv": 3810,
      "mast": 3811,
      "mut": 3812,
      "mist": 3813,
      "mix": 3814,
      "na": 3815,
      "niv": 3816,
      "nur": 3817,
      "oke": 3818,
      "pper": 3819,
      "pound": 3820,
      "pitch": 3821,
      "rou": 3822,
      "rus": 3823,
      "rout": 3824,
      "rink": 3825,
      "rust": 3826,
      "range": 3827,
      "sse": 3828,
      "sou": 3829,
      "soo": 3830,
      "sate": 3831,
      "sity": 3832,
      "sla": 3833,
      "slight": 3834,
      "sized": 3835,
      "tes": 3836,
      "tend": 3837,
      "tank": 3838,
      "uro": 3839,
      "vom": 3840,
      "vot": 3841,
      "wrap": 3842,
      "xic": 3843,
      "zo": 3844,
      "inv": 3845,
      "inct": 3846,
      "inte": 3847,
      "inum": 3848,
      "input": 3849,
      "infect": 3850,
      "eras": 3851,
      "onom": 3852,
      "astr": 3853,
      "ornam": 3854,
      "seem": 3855,
      "seven": 3856,
      "thro": 3857,
      "thous": 3858,
      "third": 3859,
      "enforce": 3860,
      "enlighten": 3861,
      "leigh": 3862,
      "lesc": 3863,
      "leav": 3864,
      "leather": 3865,
      "left": 3866,
      "leaving": 3867,
      "ano": 3868,
      "rev": 3869,
      "repe": 3870,
      "rever": 3871,
      "removing": 3872,
      "resist": 3873,
      "recreation": 3874,
      "ars": 3875,
      "arrow": 3876,
      "alot": 3877,
      "alty": 3878,
      "alter": 3879,
      "altern": 3880,
      "iting": 3881,
      "itol": 3882,
      "iture": 3883,
      "itions": 3884,
      "itude": 3885,
      "sting": 3886,
      "stable": 3887,
      "stance": 3888,
      "stones": 3889,
      "beam": 3890,
      "beau": 3891,
      "belong": 3892,
      "esca": 3893,
      "abl": 3894,
      "abuse": 3895,
      "rook": 3896,
      "toys": 3897,
      "pers": 3898,
      "perfect": 3899,
      "perjury": 3900,
      "ocar": 3901,
      "occup": 3902,
      "ocolate": 3903,
      "ivity": 3904,
      "chalk": 3905,
      "chocolate": 3906,
      "venture": 3907,
      "qual": 3908,
      "ilot": 3909,
      "ilities": 3910,
      "ama": 3911,
      "amond": 3912,
      "elle": 3913,
      "someth": 3914,
      "forts": 3915,
      "uncle": 3916,
      "uncomfortable": 3917,
      "uniform": 3918,
      "ayed": 3919,
      "plumb": 3920,
      "plural": 3921,
      "plunger": 3922,
      "ander": 3923,
      "address": 3924,
      "keys": 3925,
      "olym": 3926,
      "ury": 3927,
      "urge": 3928,
      "ider": 3929,
      "iding": 3930,
      "iment": 3931,
      "impan": 3932,
      "implement": 3933,
      "sher": 3934,
      "shor": 3935,
      "shown": 3936,
      "uman": 3937,
      "compa": 3938,
      "composed": 3939,
      "tap": 3940,
      "fridge": 3941,
      "concre": 3942,
      "content": 3943,
      "conserv": 3944,
      "contri": 3945,
      "construction": 3946,
      "cler": 3947,
      "claim": 3948,
      "excer": 3949,
      "expen": 3950,
      "extre": 3951,
      "except": 3952,
      "extract": 3953,
      "expect": 3954,
      "excav": 3955,
      "finals": 3956,
      "finally": 3957,
      "prostate": 3958,
      "protest": 3959,
      "liament": 3960,
      "modi": 3961,
      "model": 3962,
      "dial": 3963,
      "diet": 3964,
      "distress": 3965,
      "diamond": 3966,
      "decl": 3967,
      "deck": 3968,
      "department": 3969,
      "never": 3970,
      "bug": 3971,
      "worn": 3972,
      "trance": 3973,
      "preced": 3974,
      "predict": 3975,
      "mention": 3976,
      "plays": 3977,
      "spill": 3978,
      "spoon": 3979,
      "spray": 3980,
      "pod": 3981,
      "poet": 3982,
      "pover": 3983,
      "poison": 3984,
      "therape": 3985,
      "therapies": 3986,
      "mann": 3987,
      "mansion": 3988,
      "lacro": 3989,
      "ared": 3990,
      "grid": 3991,
      "utic": 3992,
      "dozen": 3993,
      "idem": 3994,
      "lying": 3995,
      "athlete": 3996,
      "ister": 3997,
      "istics": 3998,
      "scot": 3999,
      "scoring": 4000,
      "ieve": 4001,
      "cob": 4002,
      "cog": 4003,
      "intense": 4004,
      "joint": 4005,
      "jogging": 4006,
      "acid": 4007,
      "accept": 4008,
      "sens": 4009,
      "ippi": 4010,
      "bookshelf": 4011,
      "ouri": 4012,
      "cris": 4013,
      "crum": 4014,
      "former": 4015,
      "mary": 4016,
      "march": 4017,
      "marker": 4018,
      "aked": 4019,
      "ache": 4020,
      "created": 4021,
      "acting": 4022,
      "knives": 4023,
      "wrink": 4024,
      "wrench": 4025,
      "due": 4026,
      "household": 4027,
      "pride": 4028,
      "prices": 4029,
      "resturant": 4030,
      "canada": 4031,
      "flor": 4032,
      "armed": 4033,
      "findings": 4034,
      "inky": 4035,
      "blind": 4036,
      "cheap": 4037,
      "cheque": 4038,
      "smith": 4039,
      "noisy": 4040,
      "noted": 4041,
      "notice": 4042,
      "glu": 4043,
      "ians": 4044,
      "corpor": 4045,
      "correct": 4046,
      "served": 4047,
      "disorder": 4048,
      "lightbulb": 4049,
      "waves": 4050,
      "tense": 4051,
      "obstruct": 4052,
      "bake": 4053,
      "surance": 4054,
      "curb": 4055,
      "curtain": 4056,
      "daytime": 4057,
      "ptic": 4058,
      "downhill": 4059,
      "downstairs": 4060,
      "interpret": 4061,
      "setting": 4062,
      "establ": 4063,
      "puck": 4064,
      "passport": 4065,
      "busy": 4066,
      "dressed": 4067,
      "fireplace": 4068,
      "highest": 4069,
      "singer": 4070,
      "dynam": 4071,
      "dylan": 4072,
      "mathemat": 4073,
      "breaks": 4074,
      "schools": 4075,
      "horn": 4076,
      "mont": 4077,
      "needle": 4078,
      "needed": 4079,
      "sporting": 4080,
      "landscape": 4081,
      "avail": 4082,
      "filter": 4083,
      "classroom": 4084,
      "famili": 4085,
      "putting": 4086,
      "media": 4087,
      "medals": 4088,
      "troop": 4089,
      "issippi": 4090,
      "efforts": 4091,
      "richard": 4092,
      "partner": 4093,
      "twenty": 4094,
      "anyone": 4095,
      "exertion": 4096,
      "lawsuit": 4097,
      "steel": 4098,
      "stead": 4099,
      "turned": 4100,
      "traveler": 4101,
      "hunt": 4102,
      "sunrise": 4103,
      "helpful": 4104,
      "hotspring": 4105,
      "snack": 4106,
      "rible": 4107,
      "throughout": 4108,
      "captain": 4109,
      "rules": 4110,
      "wearing": 4111,
      "metabol": 4112,
      "ograph": 4113,
      "signal": 4114,
      "community": 4115,
      "career": 4116,
      "draft": 4117,
      "hurry": 4118,
      "sofa": 4119,
      "butt": 4120,
      "button": 4121,
      "tower": 4122,
      "organic": 4123,
      "trucks": 4124,
      "presented": 4125,
      "document": 4126,
      "everybody": 4127,
      "pork": 4128,
      "porn": 4129,
      "porters": 4130,
      "archy": 4131,
      "improving": 4132,
      "decision": 4133,
      "dryer": 4134,
      "committee": 4135,
      "candy": 4136,
      "candles": 4137,
      "condom": 4138,
      "explore": 4139,
      "explos": 4140,
      "activities": 4141,
      "girlfriend": 4142,
      "flying": 4143,
      "painful": 4144,
      "windows": 4145,
      "bald": 4146,
      "float": 4147,
      "addle": 4148,
      "violence": 4149,
      "dense": 4150,
      "denim": 4151,
      "region": 4152,
      "publish": 4153,
      "attacks": 4154,
      "broke": 4155,
      "odor": 4156,
      "odds": 4157,
      "vessel": 4158,
      "ologists": 4159,
      "entertainment": 4160,
      "eleph": 4161,
      "histor": 4162,
      "tuition": 4163,
      "propose": 4164,
      "screen": 4165,
      "screening": 4166,
      "socialize": 4167,
      "autom": 4168,
      "operate": 4169,
      "talent": 4170,
      "instant": 4171,
      "confuse": 4172,
      "skills": 4173,
      "wheels": 4174,
      "straw": 4175,
      "emotional": 4176,
      "dishes": 4177,
      "midterm": 4178,
      "annual": 4179,
      "positive": 4180,
      "characterized": 4181,
      "cases": 4182,
      "sadness": 4183,
      "reduced": 4184,
      "changes": 4185,
      "changed": 4186,
      "spiral": 4187,
      "scramble": 4188,
      "pension": 4189,
      "religious": 4190,
      "christian": 4191,
      "easily": 4192,
      "microsoft": 4193,
      "cowboy": 4194,
      "dealer": 4195,
      "grandmother": 4196,
      "synago": 4197,
      "provides": 4198,
      "eggs": 4199,
      "companies": 4200,
      "costume": 4201,
      "supporting": 4202,
      "flex": 4203,
      "flesh": 4204,
      "flag": 4205,
      "flavor": 4206,
      "fourth": 4207,
      "suspect": 4208,
      "chatting": 4209,
      "contempl": 4210,
      "decorate": 4211,
      "possible": 4212,
      "sailor": 4213,
      "thanks": 4214,
      "electronic": 4215,
      "targeting": 4216,
      "mexican": 4217,
      "square": 4218,
      "artery": 4219,
      "oulder": 4220,
      "conductor": 4221,
      "mechanism": 4222,
      "employe": 4223,
      "memorize": 4224,
      "State": 4225,
      "States": 4226,
      "benef": 4227,
      "picnic": 4228,
      "shaping": 4229,
      "shaped": 4230,
      "contagious": 4231,
      "consumption": 4232,
      "debate": 4233,
      "creatures": 4234,
      "literate": 4235,
      "guests": 4236,
      "professor": 4237,
      "fidd": 4238,
      "rotary": 4239,
      "rosebush": 4240,
      "compared": 4241,
      "expand": 4242,
      "industry": 4243,
      "industrial": 4244,
      "passageway": 4245,
      "analysing": 4246,
      "analysis": 4247,
      "efficient": 4248,
      "passed": 4249,
      "pantry": 4250,
      "pillow": 4251,
      "inflation": 4252,
      "attractive": 4253,
      "entrance": 4254,
      "ophone": 4255,
      "machin": 4256,
      "concentration": 4257,
      "dependent": 4258,
      "appetites": 4259,
      "pregnancy": 4260,
      "sauce": 4261,
      "bleeding": 4262,
      "schedule": 4263,
      "survival": 4264,
      "candidate": 4265,
      "frag": 4266,
      "kosher": 4267,
      "mortality": 4268,
      "pump": 4269,
      "reliable": 4270,
      "appointment": 4271,
      "philos": 4272,
      "executive": 4273,
      "folding": 4274,
      "gazelle": 4275,
      "title": 4276,
      "virtue": 4277,
      "insert": 4278,
      "recognition": 4279,
      "molecular": 4280,
      "depression": 4281,
      "weasel": 4282,
      "measuring": 4283,
      "athletic": 4284,
      "accomplishment": 4285,
      "numerous": 4286,
      "physicist": 4287,
      "courtyard": 4288,
      "temporary": 4289,
      "alphabet": 4290,
      "Michigan": 4291,
      "Wednesday": 4292,
      "bacteria": 4293,
      "furniture": 4294,
      "given": 4295,
      "jersey": 4296,
      "mistake": 4297,
      "route": 4298,
      "routine": 4299,
      "vomit": 4300,
      "integr": 4301,
      "thousand": 4302,
      "enforcement": 4303,
      "leaves": 4304,
      "beauty": 4305,
      "escape": 4306,
      "therapeutic": 4307,
      "lacrosse": 4308,
      "available": 4309,
      "synagogue": 4310,
      "11": 4311,
      "15": 4312,
      "16": 4313,
      "18": 4314,
      "23": 4315,
      "24": 4316,
      "25": 4317,
      "31": 4318,
      "35": 4319,
      "44": 4320,
      "AT": 4321,
      "Af": 4322,
      "Al": 4323,
      "An": 4324,
      "Ar": 4325,
      "CV": 4326,
      "Can": 4327,
      "Com": 4328,
      "Cali": 4329,
      "Dr": 4330,
      "Fr": 4331,
      "Hill": 4332,
      "Mar": 4333,
      "Mount": 4334,
      "OS": 4335,
      "PD": 4336,
      "Pre": 4337,
      "Par": 4338,
      "Pac": 4339,
      "Paris": 4340,
      "Sh": 4341,
      "Sy": 4342,
      "Stre": 4343,
      "Sym": 4344,
      "T2": 4345,
      "To": 4346,
      "We": 4347,
      "West": 4348,
      "afe": 4349,
      "aine": 4350,
      "awa": 4351,
      "avi": 4352,
      "aug": 4353,
      "awar": 4354,
      "bs": 4355,
      "bing": 4356,
      "bum": 4357,
      "bore": 4358,
      "blo": 4359,
      "bak": 4360,
      "bench": 4361,
      "bbon": 4362,
      "bounce": 4363,
      "cone": 4364,
      "cate": 4365,
      "core": 4366,
      "cers": 4367,
      "cute": 4368,
      "couch": 4369,
      "cattle": 4370,
      "d5": 4371,
      "dv": 4372,
      "dur": 4373,
      "dart": 4374,
      "dare": 4375,
      "diving": 4376,
      "dden": 4377,
      "dental": 4378,
      "dances": 4379,
      "een": 4380,
      "eigh": 4381,
      "eem": 4382,
      "either": 4383,
      "fed": 4384,
      "fountain": 4385,
      "fancy": 4386,
      "fencing": 4387,
      "faster": 4388,
      "fowl": 4389,
      "ga": 4390,
      "gw": 4391,
      "gal": 4392,
      "got": 4393,
      "gig": 4394,
      "gum": 4395,
      "gate": 4396,
      "gut": 4397,
      "gour": 4398,
      "gory": 4399,
      "gies": 4400,
      "glove": 4401,
      "han": 4402,
      "hay": 4403,
      "hook": 4404,
      "hip": 4405,
      "hell": 4406,
      "hous": 4407,
      "honey": 4408,
      "hatt": 4409,
      "iation": 4410,
      "iers": 4411,
      "iological": 4412,
      "jup": 4413,
      "james": 4414,
      "kite": 4415,
      "koal": 4416,
      "kne": 4417,
      "kore": 4418,
      "kick": 4419,
      "kang": 4420,
      "kio": 4421,
      "lic": 4422,
      "location": 4423,
      "lives": 4424,
      "lers": 4425,
      "link": 4426,
      "liness": 4427,
      "lamp": 4428,
      "length": 4429,
      "lantic": 4430,
      "mite": 4431,
      "mel": 4432,
      "mate": 4433,
      "mart": 4434,
      "mud": 4435,
      "mals": 4436,
      "mask": 4437,
      "ni": 4438,
      "nal": 4439,
      "nit": 4440,
      "nch": 4441,
      "none": 4442,
      "nger": 4443,
      "native": 4444,
      "naked": 4445,
      "ode": 4446,
      "oath": 4447,
      "oak": 4448,
      "ogen": 4449,
      "pis": 4450,
      "pam": 4451,
      "pour": 4452,
      "piz": 4453,
      "pilot": 4454,
      "rh": 4455,
      "rome": 4456,
      "rig": 4457,
      "rum": 4458,
      "rine": 4459,
      "rul": 4460,
      "rup": 4461,
      "rick": 4462,
      "ries": 4463,
      "rating": 4464,
      "rates": 4465,
      "rational": 4466,
      "ske": 4467,
      "sore": 4468,
      "sold": 4469,
      "sock": 4470,
      "sals": 4471,
      "sions": 4472,
      "sword": 4473,
      "slot": 4474,
      "slip": 4475,
      "sleigh": 4476,
      "t2": 4477,
      "ti": 4478,
      "tas": 4479,
      "tab": 4480,
      "tam": 4481,
      "tel": 4482,
      "tid": 4483,
      "tive": 4484,
      "ture": 4485,
      "times": 4486,
      "tighten": 4487,
      "tissue": 4488,
      "ues": 4489,
      "uous": 4490,
      "uals": 4491,
      "voc": 4492,
      "vag": 4493,
      "vod": 4494,
      "wis": 4495,
      "winn": 4496,
      "winner": 4497,
      "wages": 4498,
      "xophone": 4499,
      "zie": 4500,
      "iner": 4501,
      "init": 4502,
      "india": 4503,
      "insul": 4504,
      "injured": 4505,
      "insurance": 4506,
      "erto": 4507,
      "ercial": 4508,
      "ona": 4509,
      "onse": 4510,
      "onion": 4511,
      "atification": 4512,
      "ativity": 4513,
      "atlantic": 4514,
      "asma": 4515,
      "asia": 4516,
      "asset": 4517,
      "asons": 4518,
      "ored": 4519,
      "orough": 4520,
      "sev": 4521,
      "section": 4522,
      "secre": 4523,
      "seating": 4524,
      "select": 4525,
      "secure": 4526,
      "thy": 4527,
      "thur": 4528,
      "thus": 4529,
      "thrown": 4530,
      "thief": 4531,
      "thorough": 4532,
      "enh": 4533,
      "enn": 4534,
      "enable": 4535,
      "envel": 4536,
      "enroll": 4537,
      "lem": 4538,
      "ani": 4539,
      "anus": 4540,
      "anno": 4541,
      "ret": 4542,
      "rey": 4543,
      "reen": 4544,
      "reed": 4545,
      "retr": 4546,
      "repre": 4547,
      "recomm": 4548,
      "really": 4549,
      "retire": 4550,
      "resource": 4551,
      "recycl": 4552,
      "aroo": 4553,
      "alto": 4554,
      "alum": 4555,
      "alley": 4556,
      "itter": 4557,
      "itals": 4558,
      "itution": 4559,
      "stir": 4560,
      "strain": 4561,
      "stacle": 4562,
      "beef": 4563,
      "becue": 4564,
      "omic": 4565,
      "ombo": 4566,
      "isions": 4567,
      "islam": 4568,
      "esday": 4569,
      "escal": 4570,
      "escap": 4571,
      "aby": 4572,
      "above": 4573,
      "robe": 4574,
      "roach": 4575,
      "rogen": 4576,
      "robin": 4577,
      "icting": 4578,
      "total": 4579,
      "toler": 4580,
      "toxic": 4581,
      "perio": 4582,
      "ocent": 4583,
      "occur": 4584,
      "ivor": 4585,
      "iveness": 4586,
      "cho": 4587,
      "chart": 4588,
      "cheat": 4589,
      "chain": 4590,
      "chief": 4591,
      "choice": 4592,
      "chlor": 4593,
      "ota": 4594,
      "ettle": 4595,
      "youth": 4596,
      "younger": 4597,
      "cemet": 4598,
      "cture": 4599,
      "quent": 4600,
      "quite": 4601,
      "quand": 4602,
      "useless": 4603,
      "itecture": 4604,
      "irish": 4605,
      "amoun": 4606,
      "elimin": 4607,
      "someplace": 4608,
      "forget": 4609,
      "forrest": 4610,
      "forgive": 4611,
      "forced": 4612,
      "unix": 4613,
      "uncertain": 4614,
      "unreliable": 4615,
      "plu": 4616,
      "plasma": 4617,
      "anda": 4618,
      "ador": 4619,
      "aden": 4620,
      "admit": 4621,
      "admini": 4622,
      "oneself": 4623,
      "olic": 4624,
      "uranus": 4625,
      "ida": 4626,
      "immed": 4627,
      "imitate": 4628,
      "shit": 4629,
      "shock": 4630,
      "shadow": 4631,
      "shoulder": 4632,
      "oppy": 4633,
      "opaque": 4634,
      "persons": 4635,
      "personnel": 4636,
      "geology": 4637,
      "aller": 4638,
      "allic": 4639,
      "pea": 4640,
      "pee": 4641,
      "peak": 4642,
      "peach": 4643,
      "peps": 4644,
      "pepper": 4645,
      "haust": 4646,
      "hazard": 4647,
      "rape": 4648,
      "racy": 4649,
      "raps": 4650,
      "raising": 4651,
      "teen": 4652,
      "teak": 4653,
      "umpet": 4654,
      "uments": 4655,
      "tery": 4656,
      "terrace": 4657,
      "comed": 4658,
      "compose": 4659,
      "gets": 4660,
      "friday": 4661,
      "cons": 4662,
      "conce": 4663,
      "consul": 4664,
      "conven": 4665,
      "convey": 4666,
      "clamp": 4667,
      "cliff": 4668,
      "usa": 4669,
      "exhaust": 4670,
      "pave": 4671,
      "painter": 4672,
      "paign": 4673,
      "pajam": 4674,
      "oodle": 4675,
      "prose": 4676,
      "proof": 4677,
      "proport": 4678,
      "proving": 4679,
      "profile": 4680,
      "prospect": 4681,
      "hebre": 4682,
      "lif": 4683,
      "mode": 4684,
      "moist": 4685,
      "moved": 4686,
      "feat": 4687,
      "fections": 4688,
      "dee": 4689,
      "decre": 4690,
      "decan": 4691,
      "deleg": 4692,
      "declin": 4693,
      "deodor": 4694,
      "cked": 4695,
      "articles": 4696,
      "wipe": 4697,
      "wiener": 4698,
      "nev": 4699,
      "necess": 4700,
      "bubble": 4701,
      "anti": 4702,
      "antique": 4703,
      "sue": 4704,
      "suits": 4705,
      "sudden": 4706,
      "ounced": 4707,
      "ender": 4708,
      "ending": 4709,
      "endations": 4710,
      "drip": 4711,
      "outcome": 4712,
      "outdoors": 4713,
      "worry": 4714,
      "trick": 4715,
      "trumpet": 4716,
      "prec": 4717,
      "pred": 4718,
      "prey": 4719,
      "presc": 4720,
      "preval": 4721,
      "prefer": 4722,
      "weak": 4723,
      "wealth": 4724,
      "inebr": 4725,
      "boss": 4726,
      "bohydr": 4727,
      "players": 4728,
      "ulation": 4729,
      "ulating": 4730,
      "spo": 4731,
      "spent": 4732,
      "spice": 4733,
      "spouse": 4734,
      "spell": 4735,
      "spher": 4736,
      "illness": 4737,
      "astro": 4738,
      "methan": 4739,
      "means": 4740,
      "oregon": 4741,
      "lace": 4742,
      "lazy": 4743,
      "strand": 4744,
      "strict": 4745,
      "grants": 4746,
      "grief": 4747,
      "gratification": 4748,
      "utens": 4749,
      "why": 4750,
      "loy": 4751,
      "lost": 4752,
      "lovel": 4753,
      "loses": 4754,
      "lovers": 4755,
      "cary": 4756,
      "cargo": 4757,
      "carniv": 4758,
      "carbohydr": 4759,
      "agan": 4760,
      "aged": 4761,
      "agency": 4762,
      "athy": 4763,
      "istan": 4764,
      "scrap": 4765,
      "scene": 4766,
      "phal": 4767,
      "phony": 4768,
      "phones": 4769,
      "complet": 4770,
      "compute": 4771,
      "cose": 4772,
      "coast": 4773,
      "coord": 4774,
      "intell": 4775,
      "intensive": 4776,
      "joe": 4777,
      "traction": 4778,
      "brist": 4779,
      "brief": 4780,
      "embar": 4781,
      "acquire": 4782,
      "epile": 4783,
      "epidem": 4784,
      "ifier": 4785,
      "ified": 4786,
      "sence": 4787,
      "senting": 4788,
      "senger": 4789,
      "berg": 4790,
      "berry": 4791,
      "bookstore": 4792,
      "clog": 4793,
      "crit": 4794,
      "crumb": 4795,
      "paris": 4796,
      "paralle": 4797,
      "parliament": 4798,
      "forms": 4799,
      "creative": 4800,
      "creativity": 4801,
      "actress": 4802,
      "ellite": 4803,
      "wrist": 4804,
      "offers": 4805,
      "offices": 4806,
      "housewife": 4807,
      "pris": 4808,
      "priv": 4809,
      "owned": 4810,
      "waterfall": 4811,
      "cann": 4812,
      "cannot": 4813,
      "canvas": 4814,
      "cancers": 4815,
      "flight": 4816,
      "flash": 4817,
      "flask": 4818,
      "humid": 4819,
      "friendship": 4820,
      "paperclip": 4821,
      "saxophone": 4822,
      "cheer": 4823,
      "commuter": 4824,
      "commonly": 4825,
      "commercial": 4826,
      "learned": 4827,
      "ffle": 4828,
      "nosed": 4829,
      "nobody": 4830,
      "nostic": 4831,
      "bled": 4832,
      "portable": 4833,
      "ketch": 4834,
      "cork": 4835,
      "skating": 4836,
      "skirt": 4837,
      "series": 4838,
      "disco": 4839,
      "discount": 4840,
      "discomfort": 4841,
      "disks": 4842,
      "causes": 4843,
      "cafe": 4844,
      "lights": 4845,
      "lighting": 4846,
      "lightning": 4847,
      "counting": 4848,
      "counsel": 4849,
      "council": 4850,
      "wain": 4851,
      "penis": 4852,
      "penny": 4853,
      "thanking": 4854,
      "shows": 4855,
      "showed": 4856,
      "showroom": 4857,
      "plans": 4858,
      "planes": 4859,
      "obile": 4860,
      "observ": 4861,
      "obstacle": 4862,
      "speech": 4863,
      "hairbrush": 4864,
      "surfing": 4865,
      "survey": 4866,
      "swiss": 4867,
      "swamp": 4868,
      "curl": 4869,
      "curry": 4870,
      "days": 4871,
      "interview": 4872,
      "interaction": 4873,
      "ients": 4874,
      "esteem": 4875,
      "passion": 4876,
      "viet": 4877,
      "pressive": 4878,
      "catwalk": 4879,
      "dred": 4880,
      "firewood": 4881,
      "innocent": 4882,
      "opener": 4883,
      "fully": 4884,
      "fulfill": 4885,
      "highlighter": 4886,
      "suburb": 4887,
      "greater": 4888,
      "greedy": 4889,
      "overall": 4890,
      "overflow": 4891,
      "driveway": 4892,
      "bark": 4893,
      "barbecue": 4894,
      "gery": 4895,
      "germany": 4896,
      "hello": 4897,
      "mates": 4898,
      "matters": 4899,
      "lesson": 4900,
      "cardboard": 4901,
      "horiz": 4902,
      "needs": 4903,
      "needles": 4904,
      "payment": 4905,
      "lifestyle": 4906,
      "genet": 4907,
      "gency": 4908,
      "genetic": 4909,
      "guy": 4910,
      "anced": 4911,
      "lowest": 4912,
      "QUANT_O_": 4913,
      "calm": 4914,
      "meditate": 4915,
      "meditation": 4916,
      "programming": 4917,
      "parts": 4918,
      "trees": 4919,
      "treated": 4920,
      "soak": 4921,
      "soda": 4922,
      "thrombo": 4923,
      "checks": 4924,
      "boxer": 4925,
      "salary": 4926,
      "turns": 4927,
      "therefore": 4928,
      "tests": 4929,
      "difference": 4930,
      "differences": 4931,
      "basis": 4932,
      "bathtub": 4933,
      "hundred": 4934,
      "sunlight": 4935,
      "physician": 4936,
      "exercising": 4937,
      "afford": 4938,
      "snakes": 4939,
      "jobs": 4940,
      "evol": 4941,
      "holics": 4942,
      "ribed": 4943,
      "ribbon": 4944,
      "legis": 4945,
      "drinks": 4946,
      "capitol": 4947,
      "delayed": 4948,
      "pets": 4949,
      "ruff": 4950,
      "rocket": 4951,
      "centre": 4952,
      "spaces": 4953,
      "oga": 4954,
      "ensis": 4955,
      "butch": 4956,
      "postman": 4957,
      "fox": 4958,
      "wooden": 4959,
      "charles": 4960,
      "burg": 4961,
      "telling": 4962,
      "warming": 4963,
      "towards": 4964,
      "borer": 4965,
      "border": 4966,
      "borrow": 4967,
      "roadway": 4968,
      "covering": 4969,
      "sweater": 4970,
      "atessen": 4971,
      "hypo": 4972,
      "hydro": 4973,
      "hygi": 4974,
      "seats": 4975,
      "seatbelt": 4976,
      "architecture": 4977,
      "weights": 4978,
      "staying": 4979,
      "decisions": 4980,
      "cym": 4981,
      "mountains": 4982,
      "ankle": 4983,
      "ansion": 4984,
      "advancing": 4985,
      "conditions": 4986,
      "groups": 4987,
      "wanting": 4988,
      "wanted": 4989,
      "insight": 4990,
      "queens": 4991,
      "comforting": 4992,
      "specie": 4993,
      "cashier": 4994,
      "mush": 4995,
      "valu": 4996,
      "containing": 4997,
      "floors": 4998,
      "freeway": 4999,
      "osis": 5000,
      "wards": 5001,
      "wardrobe": 5002,
      "response": 5003,
      "additional": 5004,
      "deaths": 5005,
      "closely": 5006,
      "violent": 5007,
      "bottles": 5008,
      "nylon": 5009,
      "toothbrush": 5010,
      "alcoholic": 5011,
      "farmland": 5012,
      "leading": 5013,
      "redneck": 5014,
      "regular": 5015,
      "relev": 5016,
      "releasing": 5017,
      "competing": 5018,
      "odd": 5019,
      "venge": 5020,
      "venus": 5021,
      "onym": 5022,
      "relaxing": 5023,
      "belly": 5024,
      "ologic": 5025,
      "ologist": 5026,
      "magn": 5027,
      "bulgar": 5028,
      "suitcase": 5029,
      "197": 5030,
      "burning": 5031,
      "nament": 5032,
      "names": 5033,
      "named": 5034,
      "satellite": 5035,
      "zzy": 5036,
      "seafood": 5037,
      "experi": 5038,
      "expert": 5039,
      "treatments": 5040,
      "cabbage": 5041,
      "recipes": 5042,
      "appeared": 5043,
      "promote": 5044,
      "grape": 5045,
      "hanging": 5046,
      "messages": 5047,
      "ridge": 5048,
      "rights": 5049,
      "tuesday": 5050,
      "received": 5051,
      "resulting": 5052,
      "proposals": 5053,
      "scream": 5054,
      "diction": 5055,
      "juicy": 5056,
      "motion": 5057,
      "missouri": 5058,
      "mississippi": 5059,
      "operation": 5060,
      "operating": 5061,
      "instability": 5062,
      "orderly": 5063,
      "reflect": 5064,
      "reflection": 5065,
      "confidence": 5066,
      "confusion": 5067,
      "conference": 5068,
      "division": 5069,
      "hitting": 5070,
      "mouthwash": 5071,
      "whether": 5072,
      "strengthen": 5073,
      "climbing": 5074,
      "dolph": 5075,
      "kidney": 5076,
      "malign": 5077,
      "anna": 5078,
      "announced": 5079,
      "shelter": 5080,
      "speaker": 5081,
      "cabinets": 5082,
      "casual": 5083,
      "casino": 5084,
      "limit": 5085,
      "locker": 5086,
      "mammals": 5087,
      "pulse": 5088,
      "victory": 5089,
      "reduction": 5090,
      "roller": 5091,
      "identification": 5092,
      "identifying": 5093,
      "imaginary": 5094,
      "distant": 5095,
      "distinct": 5096,
      "hospitals": 5097,
      "politicians": 5098,
      "satisfying": 5099,
      "following": 5100,
      "considered": 5101,
      "direction": 5102,
      "directions": 5103,
      "levels": 5104,
      "fortune": 5105,
      "smelling": 5106,
      "generate": 5107,
      "banks": 5108,
      "campaign": 5109,
      "located": 5110,
      "locking": 5111,
      "multi": 5112,
      "assem": 5113,
      "realizing": 5114,
      "taxes": 5115,
      "boyfriend": 5116,
      "measured": 5117,
      "calculate": 5118,
      "investigation": 5119,
      "cows": 5120,
      "ethical": 5121,
      "failed": 5122,
      "nuclear": 5123,
      "welcome": 5124,
      "beginning": 5125,
      "continent": 5126,
      "continue": 5127,
      "defense": 5128,
      "assistant": 5129,
      "weeks": 5130,
      "discovering": 5131,
      "synthes": 5132,
      "pollut": 5133,
      "providing": 5134,
      "provided": 5135,
      "protective": 5136,
      "booze": 5137,
      "copper": 5138,
      "lungs": 5139,
      "tentative": 5140,
      "zerland": 5141,
      "adolesc": 5142,
      "companions": 5143,
      "funds": 5144,
      "funding": 5145,
      "services": 5146,
      "submarines": 5147,
      "soldiers": 5148,
      "environmental": 5149,
      "aided": 5150,
      "failure": 5151,
      "himself": 5152,
      "japan": 5153,
      "renal": 5154,
      "receptionist": 5155,
      "educational": 5156,
      "forklift": 5157,
      "decoration": 5158,
      "sailing": 5159,
      "particip": 5160,
      "delivery": 5161,
      "electron": 5162,
      "electrical": 5163,
      "targeted": 5164,
      "lonely": 5165,
      "nuts": 5166,
      "ritual": 5167,
      "tourist": 5168,
      "tournament": 5169,
      "beanbag": 5170,
      "until": 5171,
      "transplant": 5172,
      "mechanical": 5173,
      "employment": 5174,
      "discussed": 5175,
      "discussion": 5176,
      "collected": 5177,
      "gymnas": 5178,
      "memorising": 5179,
      "technology": 5180,
      "australian": 5181,
      "circus": 5182,
      "campfire": 5183,
      "psychiat": 5184,
      "tumors": 5185,
      "vari": 5186,
      "various": 5187,
      "invented": 5188,
      "bearing": 5189,
      "beverages": 5190,
      "impression": 5191,
      "consumer": 5192,
      "demonstr": 5193,
      "demonstration": 5194,
      "demonstrate": 5195,
      "negot": 5196,
      "months": 5197,
      "guilt": 5198,
      "authors": 5199,
      "literature": 5200,
      "pretending": 5201,
      "professional": 5202,
      "Christ": 5203,
      "deceased": 5204,
      "deception": 5205,
      "fiddle": 5206,
      "million": 5207,
      "placed": 5208,
      "clouds": 5209,
      "expansion": 5210,
      "liberal": 5211,
      "diagnosed": 5212,
      "demand": 5213,
      "appropr": 5214,
      "triangle": 5215,
      "logic": 5216,
      "married": 5217,
      "intervention": 5218,
      "relationships": 5219,
      "economy": 5220,
      "economic": 5221,
      "opportunities": 5222,
      "cocktail": 5223,
      "domestic": 5224,
      "faces": 5225,
      "iately": 5226,
      "punish": 5227,
      "since": 5228,
      "sorry": 5229,
      "virus": 5230,
      "attracting": 5231,
      "seeds": 5232,
      "arrested": 5233,
      "iraqi": 5234,
      "appetite": 5235,
      "traditional": 5236,
      "pregnant": 5237,
      "graduate": 5238,
      "prayer": 5239,
      "cavity": 5240,
      "tensive": 5241,
      "analyze": 5242,
      "spiritual": 5243,
      "possibly": 5244,
      "possibility": 5245,
      "catholic": 5246,
      "honor": 5247,
      "obey": 5248,
      "splurge": 5249,
      "tasting": 5250,
      "tastes": 5251,
      "vania": 5252,
      "threatening": 5253,
      "rewarded": 5254,
      "revolving": 5255,
      "arabia": 5256,
      "staple": 5257,
      "urinate": 5258,
      "urinating": 5259,
      "options": 5260,
      "consequ": 5261,
      "conquer": 5262,
      "conquering": 5263,
      "pacific": 5264,
      "pacifier": 5265,
      "prognosis": 5266,
      "prognostic": 5267,
      "decoy": 5268,
      "appliance": 5269,
      "manager": 5270,
      "carbonate": 5271,
      "trailer": 5272,
      "emergency": 5273,
      "muslims": 5274,
      "cafes": 5275,
      "situation": 5276,
      "tropical": 5277,
      "organisms": 5278,
      "addicted": 5279,
      "motorway": 5280,
      "symptoms": 5281,
      "wedding": 5282,
      "assessment": 5283,
      "nutritional": 5284,
      "continuing": 5285,
      "responsibility": 5286,
      "appreciate": 5287,
      "aero": 5288,
      "africa": 5289,
      "diminishing": 5290,
      "european": 5291,
      "argent": 5292,
      "keeper": 5293,
      "clarinet": 5294,
      "suffer": 5295,
      "previously": 5296,
      "introduction": 5297,
      "accurate": 5298,
      "certificate": 5299,
      "priority": 5300,
      "salesman": 5301,
      "pennies": 5302,
      "autoimmune": 5303,
      "delicatessen": 5304,
      "supplies": 5305,
      "details": 5306,
      "instruction": 5307,
      "sharpener": 5308,
      "determining": 5309,
      "distribute": 5310,
      "advertisement": 5311,
      "Academy": 5312,
      "Austral": 5313,
      "When": 5314,
      "bishop": 5315,
      "billiards": 5316,
      "dimens": 5317,
      "ginia": 5318,
      "journal": 5319,
      "killed": 5320,
      "motivation": 5321,
      "masturb": 5322,
      "russ": 5323,
      "slave": 5324,
      "zoom": 5325,
      "invite": 5326,
      "infected": 5327,
      "ornamental": 5328,
      "throat": 5329,
      "reverse": 5330,
      "alternative": 5331,
      "somethign": 5332,
      "olymp": 5333,
      "impanel": 5334,
      "compact": 5335,
      "concrete": 5336,
      "contribute": 5337,
      "excercise": 5338,
      "excavation": 5339,
      "poverty": 5340,
      "cogitate": 5341,
      "glucose": 5342,
      "corporation": 5343,
      "familiar": 5344,
      "automobile": 5345,
      "contemplating": 5346,
      "mechanisms": 5347,
      "employee": 5348,
      "fiddling": 5349,
      "machinery": 5350,
      "fragile": 5351,
      "philosophy": 5352,
      "California": 5353,
      "President": 5354,
      "awareness": 5355,
      "dvd": 5356,
      "housing": 5357,
      "hattan": 5358,
      "jupiter": 5359,
      "koala": 5360,
      "kangaroo": 5361,
      "kiosk": 5362,
      "tasty": 5363,
      "secret": 5364,
      "envelope": 5365,
      "representing": 5366,
      "recommendations": 5367,
      "aluminum": 5368,
      "escalator": 5369,
      "cemetery": 5370,
      "quandry": 5371,
      "amounts": 5372,
      "administration": 5373,
      "teakettle": 5374,
      "hebrew": 5375,
      "decanter": 5376,
      "declined": 5377,
      "necessary": 5378,
      "prescribed": 5379,
      "prevalent": 5380,
      "inebriated": 5381,
      "methane": 5382,
      "utensil": 5383,
      "lovely": 5384,
      "carbohydrate": 5385,
      "intellig": 5386,
      "hygiene": 5387,
      "gymnasium": 5388,
      "--": 5389,
      "01": 5390,
      "54": 5391,
      "60": 5392,
      "80": 5393,
      "911": 5394,
      "Az": 5395,
      "Afr": 5396,
      "Ang": 5397,
      "Arab": 5398,
      "BC": 5399,
      "Be": 5400,
      "Bu": 5401,
      "Ber": 5402,
      "Bud": 5403,
      "Bible": 5404,
      "Based": 5405,
      "Bd5": 5406,
      "CO": 5407,
      "Cl": 5408,
      "Cy": 5409,
      "Cor": 5410,
      "Coun": 5411,
      "City": 5412,
      "Cort": 5413,
      "Cour": 5414,
      "Centr": 5415,
      "Di": 5416,
      "Dud": 5417,
      "Distr": 5418,
      "Fro": 5419,
      "Fed": 5420,
      "Fut": 5421,
      "Frid": 5422,
      "Ger": 5423,
      "Gover": 5424,
      "God": 5425,
      "Green": 5426,
      "HO": 5427,
      "Hol": 5428,
      "Hallow": 5429,
      "Hawa": 5430,
      "IN": 5431,
      "IS": 5432,
      "IT": 5433,
      "Ira": 5434,
      "Jap": 5435,
      "LE": 5436,
      "Les": 5437,
      "Lep": 5438,
      "Mil": 5439,
      "Miss": 5440,
      "Mark": 5441,
      "Morgan": 5442,
      "Nations": 5443,
      "National": 5444,
      "On": 5445,
      "Ot": 5446,
      "Old": 5447,
      "Ohio": 5448,
      "Ph": 5449,
      "Pu": 5450,
      "PAL": 5451,
      "Que": 5452,
      "RE": 5453,
      "Ron": 5454,
      "Rel": 5455,
      "Rep": 5456,
      "Rink": 5457,
      "Sc": 5458,
      "Sm": 5459,
      "Sat": 5460,
      "Sen": 5461,
      "Star": 5462,
      "Sea": 5463,
      "Te": 5464,
      "Twain": 5465,
      "Ve": 5466,
      "Vir": 5467,
      "Wol": 5468,
      "Wind": 5469,
      "Willi": 5470,
      "Washing": 5471,
      "ais": 5472,
      "ause": 5473,
      "aur": 5474,
      "aking": 5475,
      "aint": 5476,
      "aust": 5477,
      "aos": 5478,
      "acks": 5479,
      "aholics": 5480,
      "ban": 5481,
      "biv": 5482,
      "bay": 5483,
      "bare": 5484,
      "bie": 5485,
      "bour": 5486,
      "bile": 5487,
      "bitch": 5488,
      "cd": 5489,
      "cation": 5490,
      "cto": 5491,
      "coc": 5492,
      "cet": 5493,
      "coo": 5494,
      "cum": 5495,
      "cart": 5496,
      "cass": 5497,
      "cact": 5498,
      "cia": 5499,
      "cens": 5500,
      "cope": 5501,
      "cuc": 5502,
      "cino": 5503,
      "dor": 5504,
      "ding": 5505,
      "dun": 5506,
      "dex": 5507,
      "dut": 5508,
      "dice": 5509,
      "dime": 5510,
      "drow": 5511,
      "dhis": 5512,
      "dys": 5513,
      "dens": 5514,
      "dave": 5515,
      "dwell": 5516,
      "dont": 5517,
      "divers": 5518,
      "dino": 5519,
      "eg": 5520,
      "eu": 5521,
      "ew": 5522,
      "ego": 5523,
      "estr": 5524,
      "eiff": 5525,
      "fuse": 5526,
      "fir": 5527,
      "fant": 5528,
      "fash": 5529,
      "flip": 5530,
      "folder": 5531,
      "firm": 5532,
      "gation": 5533,
      "gic": 5534,
      "gay": 5535,
      "gop": 5536,
      "gives": 5537,
      "gment": 5538,
      "gang": 5539,
      "gust": 5540,
      "gross": 5541,
      "gave": 5542,
      "gates": 5543,
      "gtables": 5544,
      "gila": 5545,
      "hou": 5546,
      "hoo": 5547,
      "hop": 5548,
      "hate": 5549,
      "hive": 5550,
      "hope": 5551,
      "hier": 5552,
      "hiding": 5553,
      "iom": 5554,
      "iop": 5555,
      "iph": 5556,
      "iac": 5557,
      "iber": 5558,
      "ibl": 5559,
      "iator": 5560,
      "ji": 5561,
      "jr": 5562,
      "jel": 5563,
      "jig": 5564,
      "jug": 5565,
      "jaz": 5566,
      "jockey": 5567,
      "jaw": 5568,
      "ka": 5569,
      "ky": 5570,
      "kat": 5571,
      "kor": 5572,
      "kan": 5573,
      "kers": 5574,
      "kak": 5575,
      "kary": 5576,
      "kins": 5577,
      "kaz": 5578,
      "las": 5579,
      "len": 5580,
      "lation": 5581,
      "lof": 5582,
      "loo": 5583,
      "lid": 5584,
      "lman": 5585,
      "lions": 5586,
      "lley": 5587,
      "lumber": 5588,
      "lvania": 5589,
      "mand": 5590,
      "mol": 5591,
      "mig": 5592,
      "mend": 5593,
      "math": 5594,
      "mber": 5595,
      "mound": 5596,
      "mike": 5597,
      "mination": 5598,
      "munch": 5599,
      "morgan": 5600,
      "mely": 5601,
      "noc": 5602,
      "nig": 5603,
      "ners": 5604,
      "nour": 5605,
      "nav": 5606,
      "narrow": 5607,
      "noodle": 5608,
      "oh": 5609,
      "oit": 5610,
      "ostr": 5611,
      "oint": 5612,
      "ogh": 5613,
      "oons": 5614,
      "osexual": 5615,
      "ohio": 5616,
      "pth": 5617,
      "pent": 5618,
      "pel": 5619,
      "proper": 5620,
      "pra": 5621,
      "pta": 5622,
      "pus": 5623,
      "phe": 5624,
      "pist": 5625,
      "pure": 5626,
      "pting": 5627,
      "pies": 5628,
      "pong": 5629,
      "piss": 5630,
      "pike": 5631,
      "pins": 5632,
      "pster": 5633,
      "pants": 5634,
      "praise": 5635,
      "pipes": 5636,
      "paddle": 5637,
      "rp": 5638,
      "rin": 5639,
      "rion": 5640,
      "ral": 5641,
      "riv": 5642,
      "rand": 5643,
      "rice": 5644,
      "rase": 5645,
      "rif": 5646,
      "rang": 5647,
      "rile": 5648,
      "rough": 5649,
      "ranger": 5650,
      "rural": 5651,
      "sv": 5652,
      "sir": 5653,
      "sop": 5654,
      "sac": 5655,
      "sating": 5656,
      "sses": 5657,
      "slack": 5658,
      "sought": 5659,
      "slaughter": 5660,
      "solder": 5661,
      "skept": 5662,
      "saddle": 5663,
      "scary": 5664,
      "t1": 5665,
      "tun": 5666,
      "tart": 5667,
      "tind": 5668,
      "tang": 5669,
      "tts": 5670,
      "tamin": 5671,
      "tuna": 5672,
      "ush": 5673,
      "uge": 5674,
      "uta": 5675,
      "uli": 5676,
      "ubl": 5677,
      "ufact": 5678,
      "vy": 5679,
      "vig": 5680,
      "vated": 5681,
      "vend": 5682,
      "vine": 5683,
      "vill": 5684,
      "vity": 5685,
      "wn": 5686,
      "wil": 5687,
      "wig": 5688,
      "wick": 5689,
      "wool": 5690,
      "weld": 5691,
      "wings": 5692,
      "xy": 5693,
      "xed": 5694,
      "xid": 5695,
      "xim": 5696,
      "xiety": 5697,
      "yo": 5698,
      "yx": 5699,
      "yes": 5700,
      "yet": 5701,
      "ype": 5702,
      "yote": 5703,
      "yond": 5704,
      "yoy": 5705,
      "yaw": 5706,
      "yoga": 5707,
      "zing": 5708,
      "zones": 5709,
      "ined": 5710,
      "inson": 5711,
      "inated": 5712,
      "insu": 5713,
      "intake": 5714,
      "inher": 5715,
      "incent": 5716,
      "indoor": 5717,
      "incand": 5718,
      "inium": 5719,
      "injur": 5720,
      "infar": 5721,
      "inhale": 5722,
      "invit": 5723,
      "influ": 5724,
      "indoors": 5725,
      "inhib": 5726,
      "inarian": 5727,
      "incorrect": 5728,
      "instead": 5729,
      "independent": 5730,
      "infections": 5731,
      "inmates": 5732,
      "era": 5733,
      "erce": 5734,
      "erole": 5735,
      "erables": 5736,
      "onco": 5737,
      "onions": 5738,
      "onaut": 5739,
      "onounce": 5740,
      "atus": 5741,
      "aters": 5742,
      "ators": 5743,
      "atoms": 5744,
      "atomic": 5745,
      "attraction": 5746,
      "asm": 5747,
      "asp": 5748,
      "aside": 5749,
      "asking": 5750,
      "asian": 5751,
      "aspect": 5752,
      "orn": 5753,
      "oral": 5754,
      "orch": 5755,
      "orig": 5756,
      "orie": 5757,
      "orph": 5758,
      "orang": 5759,
      "seen": 5760,
      "selection": 5761,
      "thm": 5762,
      "thin": 5763,
      "thouse": 5764,
      "though": 5765,
      "thunder": 5766,
      "thail": 5767,
      "thirty": 5768,
      "thier": 5769,
      "thumb": 5770,
      "thai": 5771,
      "enc": 5772,
      "enes": 5773,
      "enced": 5774,
      "encounter": 5775,
      "enthus": 5776,
      "lef": 5777,
      "leen": 5778,
      "leys": 5779,
      "lemur": 5780,
      "anth": 5781,
      "anen": 5782,
      "anke": 5783,
      "ante": 5784,
      "anine": 5785,
      "anity": 5786,
      "anarchy": 5787,
      "anxiety": 5788,
      "reck": 5789,
      "recor": 5790,
      "revis": 5791,
      "reject": 5792,
      "recur": 5793,
      "resent": 5794,
      "reorgan": 5795,
      "reply": 5796,
      "reserve": 5797,
      "reju": 5798,
      "republic": 5799,
      "resour": 5800,
      "retail": 5801,
      "recru": 5802,
      "reasons": 5803,
      "reagan": 5804,
      "revenge": 5805,
      "regenerate": 5806,
      "replaced": 5807,
      "inge": 5808,
      "ingness": 5809,
      "ioned": 5810,
      "ionship": 5811,
      "ara": 5812,
      "ari": 5813,
      "arct": 5814,
      "arma": 5815,
      "arise": 5816,
      "arche": 5817,
      "ariz": 5818,
      "arium": 5819,
      "aruba": 5820,
      "arthur": 5821,
      "ala": 5822,
      "aly": 5823,
      "alab": 5824,
      "alca": 5825,
      "alike": 5826,
      "algor": 5827,
      "already": 5828,
      "aluate": 5829,
      "alert": 5830,
      "album": 5831,
      "ita": 5832,
      "itat": 5833,
      "itis": 5834,
      "itone": 5835,
      "itut": 5836,
      "itud": 5837,
      "itating": 5838,
      "itors": 5839,
      "itzerland": 5840,
      "stan": 5841,
      "stro": 5842,
      "sted": 5843,
      "stere": 5844,
      "stam": 5845,
      "stall": 5846,
      "stile": 5847,
      "stract": 5848,
      "stitute": 5849,
      "stove": 5850,
      "stinky": 5851,
      "bea": 5852,
      "behave": 5853,
      "beak": 5854,
      "begun": 5855,
      "behalf": 5856,
      "becomes": 5857,
      "became": 5858,
      "beyond": 5859,
      "omet": 5860,
      "omnia": 5861,
      "isine": 5862,
      "isolate": 5863,
      "ented": 5864,
      "entire": 5865,
      "entry": 5866,
      "esis": 5867,
      "esop": 5868,
      "espe": 5869,
      "escent": 5870,
      "espread": 5871,
      "abul": 5872,
      "ably": 5873,
      "absur": 5874,
      "abri": 5875,
      "abnormal": 5876,
      "absence": 5877,
      "abstract": 5878,
      "theory": 5879,
      "thetic": 5880,
      "root": 5881,
      "roam": 5882,
      "roses": 5883,
      "robot": 5884,
      "icel": 5885,
      "icated": 5886,
      "tok": 5887,
      "tot": 5888,
      "toes": 5889,
      "tober": 5890,
      "toll": 5891,
      "perman": 5892,
      "percent": 5893,
      "perspir": 5894,
      "persist": 5895,
      "perfection": 5896,
      "pertensive": 5897,
      "eda": 5898,
      "edged": 5899,
      "ocd": 5900,
      "oce": 5901,
      "och": 5902,
      "ocy": 5903,
      "ocking": 5904,
      "octop": 5905,
      "occas": 5906,
      "ocracy": 5907,
      "october": 5908,
      "iva": 5909,
      "ivy": 5910,
      "ivory": 5911,
      "chi": 5912,
      "chal": 5913,
      "choo": 5914,
      "cham": 5915,
      "chand": 5916,
      "chim": 5917,
      "chap": 5918,
      "charm": 5919,
      "chile": 5920,
      "champ": 5921,
      "chaos": 5922,
      "otics": 5923,
      "ett": 5924,
      "eting": 5925,
      "ette": 5926,
      "etze": 5927,
      "etzie": 5928,
      "cemic": 5929,
      "celer": 5930,
      "ctics": 5931,
      "ques": 5932,
      "quet": 5933,
      "quill": 5934,
      "quarium": 5935,
      "usetts": 5936,
      "iling": 5937,
      "ilton": 5938,
      "ooge": 5939,
      "typing": 5940,
      "iring": 5941,
      "irting": 5942,
      "amm": 5943,
      "ampl": 5944,
      "amph": 5945,
      "amins": 5946,
      "amaz": 5947,
      "ambul": 5948,
      "amnes": 5949,
      "ella": 5950,
      "elash": 5951,
      "elder": 5952,
      "eliness": 5953,
      "elbow": 5954,
      "elastic": 5955,
      "forth": 5956,
      "und": 5957,
      "unit": 5958,
      "unother": 5959,
      "unhealthy": 5960,
      "unloved": 5961,
      "unda": 5962,
      "unpleasant": 5963,
      "unpreced": 5964,
      "unwanted": 5965,
      "unfamiliar": 5966,
      "pler": 5967,
      "plar": 5968,
      "plow": 5969,
      "plus": 5970,
      "ploma": 5971,
      "plenty": 5972,
      "ads": 5973,
      "adis": 5974,
      "adise": 5975,
      "adian": 5976,
      "advers": 5977,
      "adventure": 5978,
      "onest": 5979,
      "olar": 5980,
      "oline": 5981,
      "vegtables": 5982,
      "urer": 5983,
      "urate": 5984,
      "urday": 5985,
      "igu": 5986,
      "ides": 5987,
      "ided": 5988,
      "ows": 5989,
      "impa": 5990,
      "iments": 5991,
      "imply": 5992,
      "imprison": 5993,
      "imental": 5994,
      "impulse": 5995,
      "ired": 5996,
      "sonant": 5997,
      "shi": 5998,
      "shing": 5999,
      "shout": 6000,
      "shore": 6001,
      "shade": 6002,
      "shots": 6003,
      "option": 6004,
      "optim": 6005,
      "oppressive": 6006,
      "yours": 6007,
      "gee": 6008,
      "geon": 6009,
      "gear": 6010,
      "geal": 6011,
      "geograph": 6012,
      "alliance": 6013,
      "haha": 6014,
      "hageal": 6015,
      "max": 6016,
      "maine": 6017,
      "makes": 6018,
      "rac": 6019,
      "raj": 6020,
      "rare": 6021,
      "raper": 6022,
      "racing": 6023,
      "tect": 6024,
      "tease": 6025,
      "terr": 6026,
      "terity": 6027,
      "territ": 6028,
      "terrible": 6029,
      "atedTo": 6030,
      "goes": 6031,
      "goto": 6032,
      "goise": 6033,
      "combu": 6034,
      "comment": 6035,
      "compress": 6036,
      "compressed": 6037,
      "comedy": 6038,
      "tale": 6039,
      "tack": 6040,
      "tache": 6041,
      "tawa": 6042,
      "taping": 6043,
      "takes": 6044,
      "taken": 6045,
      "tailed": 6046,
      "tapes": 6047,
      "fright": 6048,
      "frank": 6049,
      "fringe": 6050,
      "atest": 6051,
      "cony": 6052,
      "conquest": 6053,
      "conscience": 6054,
      "conception": 6055,
      "context": 6056,
      "congest": 6057,
      "contamin": 6058,
      "clam": 6059,
      "clay": 6060,
      "clark": 6061,
      "claw": 6062,
      "clutter": 6063,
      "usive": 6064,
      "usage": 6065,
      "users": 6066,
      "exit": 6067,
      "expo": 6068,
      "exchange": 6069,
      "excess": 6070,
      "excell": 6071,
      "exotic": 6072,
      "pacity": 6073,
      "pawn": 6074,
      "verbal": 6075,
      "vermont": 6076,
      "finite": 6077,
      "financing": 6078,
      "pros": 6079,
      "proced": 6080,
      "procreating": 6081,
      "prokary": 6082,
      "prostitute": 6083,
      "hem": 6084,
      "heal": 6085,
      "heated": 6086,
      "height": 6087,
      "heavi": 6088,
      "lies": 6089,
      "mosch": 6090,
      "mobile": 6091,
      "feine": 6092,
      "feature": 6093,
      "dip": 6094,
      "diac": 6095,
      "diary": 6096,
      "diana": 6097,
      "diploma": 6098,
      "deer": 6099,
      "dean": 6100,
      "defined": 6101,
      "defl": 6102,
      "degre": 6103,
      "debut": 6104,
      "depot": 6105,
      "deposit": 6106,
      "destruction": 6107,
      "depressed": 6108,
      "defeat": 6109,
      "depth": 6110,
      "arts": 6111,
      "wise": 6112,
      "nea": 6113,
      "nee": 6114,
      "neur": 6115,
      "neuro": 6116,
      "buff": 6117,
      "antise": 6118,
      "antio": 6119,
      "suck": 6120,
      "sustain": 6121,
      "endo": 6122,
      "ends": 6123,
      "endanger": 6124,
      "dried": 6125,
      "outlet": 6126,
      "outlook": 6127,
      "outcomes": 6128,
      "worst": 6129,
      "worms": 6130,
      "worthy": 6131,
      "assing": 6132,
      "assum": 6133,
      "assment": 6134,
      "apparent": 6135,
      "trout": 6136,
      "trib": 6137,
      "prepar": 6138,
      "preser": 6139,
      "presid": 6140,
      "prescrip": 6141,
      "weetzie": 6142,
      "inese": 6143,
      "boys": 6144,
      "bodies": 6145,
      "ulty": 6146,
      "spin": 6147,
      "spit": 6148,
      "spam": 6149,
      "spel": 6150,
      "spark": 6151,
      "sprink": 6152,
      "spassing": 6153,
      "illy": 6154,
      "illas": 6155,
      "astatic": 6156,
      "ssion": 6157,
      "meant": 6158,
      "mezz": 6159,
      "posses": 6160,
      "poplar": 6161,
      "manife": 6162,
      "manila": 6163,
      "manufact": 6164,
      "launch": 6165,
      "lahom": 6166,
      "laird": 6167,
      "strat": 6168,
      "stren": 6169,
      "strive": 6170,
      "strange": 6171,
      "gras": 6172,
      "grab": 6173,
      "utes": 6174,
      "dole": 6175,
      "icebox": 6176,
      "ideal": 6177,
      "lyfish": 6178,
      "logo": 6179,
      "loving": 6180,
      "carol": 6181,
      "carve": 6182,
      "carri": 6183,
      "upper": 6184,
      "upset": 6185,
      "update": 6186,
      "ager": 6187,
      "agger": 6188,
      "agony": 6189,
      "agraph": 6190,
      "agreed": 6191,
      "Dec": 6192,
      "Department": 6193,
      "scur": 6194,
      "scenes": 6195,
      "scraper": 6196,
      "pher": 6197,
      "phen": 6198,
      "phine": 6199,
      "phallic": 6200,
      "phrase": 6201,
      "pharma": 6202,
      "makeup": 6203,
      "compass": 6204,
      "compul": 6205,
      "kingdom": 6206,
      "coh": 6207,
      "cole": 6208,
      "cosm": 6209,
      "coaster": 6210,
      "coyote": 6211,
      "intim": 6212,
      "intention": 6213,
      "airship": 6214,
      "indicate": 6215,
      "jose": 6216,
      "trap": 6217,
      "tracks": 6218,
      "gooden": 6219,
      "bris": 6220,
      "bright": 6221,
      "brut": 6222,
      "brick": 6223,
      "brian": 6224,
      "bribe": 6225,
      "emit": 6226,
      "emic": 6227,
      "emiss": 6228,
      "embro": 6229,
      "embra": 6230,
      "acqu": 6231,
      "acute": 6232,
      "accel": 6233,
      "academy": 6234,
      "acceler": 6235,
      "ipper": 6236,
      "iped": 6237,
      "berries": 6238,
      "bookcase": 6239,
      "closed": 6240,
      "clover": 6241,
      "clogging": 6242,
      "bred": 6243,
      "cray": 6244,
      "crim": 6245,
      "paras": 6246,
      "parlor": 6247,
      "paradise": 6248,
      "paragraph": 6249,
      "cerity": 6250,
      "formation": 6251,
      "ounded": 6252,
      "mars": 6253,
      "marmot": 6254,
      "works": 6255,
      "worksheet": 6256,
      "workaholics": 6257,
      "achusetts": 6258,
      "creatic": 6259,
      "acters": 6260,
      "actors": 6261,
      "balls": 6262,
      "ballpoint": 6263,
      "balloons": 6264,
      "knight": 6265,
      "knick": 6266,
      "knob": 6267,
      "knock": 6268,
      "ghan": 6269,
      "ellison": 6270,
      "seek": 6271,
      "offic": 6272,
      "offspring": 6273,
      "derive": 6274,
      "derived": 6275,
      "houses": 6276,
      "prin": 6277,
      "princ": 6278,
      "pronounce": 6279,
      "owners": 6280,
      "cans": 6281,
      "cannon": 6282,
      "flood": 6283,
      "floppy": 6284,
      "flirting": 6285,
      "hump": 6286,
      "humming": 6287,
      "takeover": 6288,
      "ously": 6289,
      "fried": 6290,
      "humanity": 6291,
      "angel": 6292,
      "angles": 6293,
      "blame": 6294,
      "blouse": 6295,
      "blink": 6296,
      "bliss": 6297,
      "paperwork": 6298,
      "sake": 6299,
      "saur": 6300,
      "sack": 6301,
      "saint": 6302,
      "saving": 6303,
      "chemother": 6304,
      "command": 6305,
      "commute": 6306,
      "jection": 6307,
      "jewish": 6308,
      "rowave": 6309,
      "noses": 6310,
      "notation": 6311,
      "velvet": 6312,
      "reef": 6313,
      "bles": 6314,
      "bleach": 6315,
      "glor": 6316,
      "glad": 6317,
      "kette": 6318,
      "corhy": 6319,
      "corner": 6320,
      "skip": 6321,
      "skates": 6322,
      "serum": 6323,
      "dispo": 6324,
      "disagree": 6325,
      "disobey": 6326,
      "disgust": 6327,
      "diskette": 6328,
      "caus": 6329,
      "capacity": 6330,
      "cology": 6331,
      "collection": 6332,
      "lightly": 6333,
      "visual": 6334,
      "waking": 6335,
      "izu": 6336,
      "izes": 6337,
      "izations": 6338,
      "penalty": 6339,
      "rune": 6340,
      "uterine": 6341,
      "cleaner": 6342,
      "cleanliness": 6343,
      "showing": 6344,
      "tension": 6345,
      "knowlege": 6346,
      "obso": 6347,
      "feels": 6348,
      "feelings": 6349,
      "sylvania": 6350,
      "bait": 6351,
      "baking": 6352,
      "baza": 6353,
      "childbirth": 6354,
      "hairdressing": 6355,
      "hairdryer": 6356,
      "scholar": 6357,
      "leton": 6358,
      "letting": 6359,
      "patr": 6360,
      "patio": 6361,
      "surgery": 6362,
      "surgeon": 6363,
      "swallow": 6364,
      "switzerland": 6365,
      "cury": 6366,
      "curio": 6367,
      "pted": 6368,
      "walkway": 6369,
      "healthcare": 6370,
      "interstate": 6371,
      "interpersonal": 6372,
      "interior": 6373,
      "attles": 6374,
      "sett": 6375,
      "ignor": 6376,
      "restaurants": 6377,
      "puerto": 6378,
      "busines": 6379,
      "catsup": 6380,
      "fired": 6381,
      "lark": 6382,
      "larry": 6383,
      "ugly": 6384,
      "innate": 6385,
      "highly": 6386,
      "subtitle": 6387,
      "gregation": 6388,
      "greatest": 6389,
      "holds": 6390,
      "overweight": 6391,
      "barre": 6392,
      "barter": 6393,
      "bargain": 6394,
      "barrier": 6395,
      "baritone": 6396,
      "dying": 6397,
      "german": 6398,
      "helping": 6399,
      "schoolbus": 6400,
      "descr": 6401,
      "desert": 6402,
      "horrible": 6403,
      "monument": 6404,
      "monarch": 6405,
      "monitor": 6406,
      "needing": 6407,
      "animate": 6408,
      "genome": 6409,
      "generic": 6410,
      "hoe": 6411,
      "hog": 6412,
      "hoist": 6413,
      "lands": 6414,
      "landmark": 6415,
      "worlds": 6416,
      "guar": 6417,
      "filled": 6418,
      "willingness": 6419,
      "classic": 6420,
      "classification": 6421,
      "production": 6422,
      "producer": 6423,
      "produced": 6424,
      "producing": 6425,
      "trying": 6426,
      "eyed": 6427,
      "eyelash": 6428,
      "polo": 6429,
      "polic": 6430,
      "policy": 6431,
      "polished": 6432,
      "writers": 6433,
      "writting": 6434,
      "calorie": 6435,
      "entering": 6436,
      "meetings": 6437,
      "auction": 6438,
      "medal": 6439,
      "medit": 6440,
      "medium": 6441,
      "trolley": 6442,
      "rains": 6443,
      "rainwater": 6444,
      "rico": 6445,
      "socket": 6446,
      "falls": 6447,
      "fallen": 6448,
      "took": 6449,
      "exert": 6450,
      "fasten": 6451,
      "trespassing": 6452,
      "stew": 6453,
      "steep": 6454,
      "steering": 6455,
      "longitud": 6456,
      "soy": 6457,
      "sole": 6458,
      "soar": 6459,
      "relat": 6460,
      "relating": 6461,
      "shovel": 6462,
      "atheros": 6463,
      "checking": 6464,
      "ios": 6465,
      "salty": 6466,
      "turner": 6467,
      "turning": 6468,
      "turnal": 6469,
      "turnstile": 6470,
      "tested": 6471,
      "films": 6472,
      "italy": 6473,
      "italian": 6474,
      "painted": 6475,
      "hunter": 6476,
      "hunting": 6477,
      "hunters": 6478,
      "beings": 6479,
      "boards": 6480,
      "physicians": 6481,
      "helps": 6482,
      "exercised": 6483,
      "affection": 6484,
      "hotdog": 6485,
      "hotdogs": 6486,
      "maybe": 6487,
      "snail": 6488,
      "backyard": 6489,
      "backhoe": 6490,
      "courthouse": 6491,
      "evaluate": 6492,
      "frequent": 6493,
      "holland": 6494,
      "holbro": 6495,
      "winding": 6496,
      "orgasm": 6497,
      "ulture": 6498,
      "fiber": 6499,
      "fierce": 6500,
      "riers": 6501,
      "throughs": 6502,
      "bagel": 6503,
      "bagels": 6504,
      "bagpipes": 6505,
      "gardener": 6506,
      "legs": 6507,
      "drinkable": 6508,
      "delight": 6509,
      "delusion": 6510,
      "ruin": 6511,
      "ruth": 6512,
      "rush": 6513,
      "itchy": 6514,
      "rockets": 6515,
      "heartache": 6516,
      "headlight": 6517,
      "headaches": 6518,
      "headache": 6519,
      "ifications": 6520,
      "marketing": 6521,
      "centric": 6522,
      "century": 6523,
      "growth": 6524,
      "myocar": 6525,
      "mets": 6526,
      "meter": 6527,
      "eyeglass": 6528,
      "minus": 6529,
      "minister": 6530,
      "minutes": 6531,
      "enjoyed": 6532,
      "stored": 6533,
      "stories": 6534,
      "supporters": 6535,
      "communist": 6536,
      "hurts": 6537,
      "importance": 6538,
      "ships": 6539,
      "posting": 6540,
      "postal": 6541,
      "whole": 6542,
      "gardening": 6543,
      "foss": 6544,
      "foster": 6545,
      "solar": 6546,
      "woody": 6547,
      "woodwind": 6548,
      "woodworking": 6549,
      "charged": 6550,
      "charges": 6551,
      "vegetarian": 6552,
      "diabetic": 6553,
      "burgl": 6554,
      "burgoise": 6555,
      "facts": 6556,
      "garcia": 6557,
      "netic": 6558,
      "network": 6559,
      "nightly": 6560,
      "teaching": 6561,
      "teachers": 6562,
      "newspapers": 6563,
      "organizations": 6564,
      "roads": 6565,
      "presentation": 6566,
      "covered": 6567,
      "trains": 6568,
      "trainer": 6569,
      "trained": 6570,
      "tempur": 6571,
      "controll": 6572,
      "horseshoes": 6573,
      "documents": 6574,
      "everyday": 6575,
      "hypertensive": 6576,
      "litter": 6577,
      "porter": 6578,
      "plying": 6579,
      "swimmer": 6580,
      "microwave": 6581,
      "torn": 6582,
      "lessness": 6583,
      "improved": 6584,
      "diego": 6585,
      "decay": 6586,
      "doorway": 6587,
      "doormat": 6588,
      "doorbell": 6589,
      "freshen": 6590,
      "freshwater": 6591,
      "cylind": 6592,
      "cesses": 6593,
      "advice": 6594,
      "advances": 6595,
      "drying": 6596,
      "drawn": 6597,
      "crossing": 6598,
      "justices": 6599,
      "ontal": 6600,
      "aska": 6601,
      "studied": 6602,
      "exploring": 6603,
      "tickets": 6604,
      "insane": 6605,
      "insanity": 6606,
      "insomnia": 6607,
      "chairs": 6608,
      "species": 6609,
      "balanced": 6610,
      "balcony": 6611,
      "gasoline": 6612,
      "muham": 6613,
      "pier": 6614,
      "pipe": 6615,
      "valid": 6616,
      "valleys": 6617,
      "contained": 6618,
      "prepared": 6619,
      "systems": 6620,
      "subjects": 6621,
      "subjective": 6622,
      "freeze": 6623,
      "guns": 6624,
      "toolbox": 6625,
      "adding": 6626,
      "added": 6627,
      "tractor": 6628,
      "denver": 6629,
      "denote": 6630,
      "mason": 6631,
      "performing": 6632,
      "chromat": 6633,
      "toothpick": 6634,
      "farms": 6635,
      "groin": 6636,
      "somthing": 6637,
      "leaders": 6638,
      "regim": 6639,
      "regul": 6640,
      "regional": 6641,
      "register": 6642,
      "released": 6643,
      "recording": 6644,
      "celebrity": 6645,
      "competition": 6646,
      "dreamer": 6647,
      "dreaming": 6648,
      "governor": 6649,
      "broker": 6650,
      "broken": 6651,
      "homosexual": 6652,
      "moral": 6653,
      "morphine": 6654,
      "onyi": 6655,
      "belts": 6656,
      "magic": 6657,
      "complain": 6658,
      "compliment": 6659,
      "protein": 6660,
      "improvement": 6661,
      "1914": 6662,
      "foreign": 6663,
      "entertaining": 6664,
      "cooling": 6665,
      "election": 6666,
      "eleven": 6667,
      "elevated": 6668,
      "hammer": 6669,
      "juris": 6670,
      "increased": 6671,
      "recieve": 6672,
      "required": 6673,
      "requires": 6674,
      "meaning": 6675,
      "bruce": 6676,
      "bruised": 6677,
      "understandably": 6678,
      "streets": 6679,
      "fingerprint": 6680,
      "bigger": 6681,
      "equity": 6682,
      "folk": 6683,
      "grap": 6684,
      "merchand": 6685,
      "mercury": 6686,
      "practise": 6687,
      "practices": 6688,
      "rider": 6689,
      "summar": 6690,
      "recepta": 6691,
      "proposed": 6692,
      "transa": 6693,
      "transit": 6694,
      "agreeing": 6695,
      "sells": 6696,
      "skylight": 6697,
      "skyscraper": 6698,
      "catching": 6699,
      "socialist": 6700,
      "bolOf": 6701,
      "dictator": 6702,
      "gathering": 6703,
      "juana": 6704,
      "lined": 6705,
      "linole": 6706,
      "mission": 6707,
      "missile": 6708,
      "nonsense": 6709,
      "institution": 6710,
      "refer": 6711,
      "refuse": 6712,
      "reference": 6713,
      "refuge": 6714,
      "stockpile": 6715,
      "confusing": 6716,
      "confirm": 6717,
      "clearly": 6718,
      "marks": 6719,
      "marked": 6720,
      "markers": 6721,
      "symphony": 6722,
      "greatly": 6723,
      "nord": 6724,
      "norm": 6725,
      "rising": 6726,
      "simonyi": 6727,
      "error": 6728,
      "errors": 6729,
      "arriving": 6730,
      "arrange": 6731,
      "songs": 6732,
      "flows": 6733,
      "purchasing": 6734,
      "alem": 6735,
      "bowling": 6736,
      "dishonest": 6737,
      "filed": 6738,
      "livingroom": 6739,
      "saying": 6740,
      "wednesday": 6741,
      "anea": 6742,
      "analog": 6743,
      "prisoner": 6744,
      "determination": 6745,
      "characteristics": 6746,
      "specialization": 6747,
      "billion": 6748,
      "earning": 6749,
      "earned": 6750,
      "limits": 6751,
      "locked": 6752,
      "pedestr": 6753,
      "pulled": 6754,
      "pulpit": 6755,
      "victim": 6756,
      "wallpaper": 6757,
      "investor": 6758,
      "sticks": 6759,
      "rolling": 6760,
      "chemistr": 6761,
      "imaging": 6762,
      "shares": 6763,
      "combat": 6764,
      "combination": 6765,
      "weeding": 6766,
      "avoidance": 6767,
      "rubin": 6768,
      "flooring": 6769,
      "liquids": 6770,
      "follower": 6771,
      "considerable": 6772,
      "developing": 6773,
      "acknow": 6774,
      "donor": 6775,
      "director": 6776,
      "fatig": 6777,
      "panty": 6778,
      "pancreatic": 6779,
      "static": 6780,
      "statue": 6781,
      "statistics": 6782,
      "peaceful": 6783,
      "majority": 6784,
      "clinicians": 6785,
      "greenhouse": 6786,
      "designer": 6787,
      "designing": 6788,
      "designed": 6789,
      "generally": 6790,
      "brakes": 6791,
      "cameras": 6792,
      "crazy": 6793,
      "massachusetts": 6794,
      "roman": 6795,
      "romance": 6796,
      "santa": 6797,
      "realization": 6798,
      "taxis": 6799,
      "clueless": 6800,
      "empire": 6801,
      "empathy": 6802,
      "muscles": 6803,
      "calculations": 6804,
      "microbi": 6805,
      "microscopes": 6806,
      "explaining": 6807,
      "investing": 6808,
      "investig": 6809,
      "investment": 6810,
      "Inc": 6811,
      "Indiana": 6812,
      "bats": 6813,
      "batter": 6814,
      "cipl": 6815,
      "cially": 6816,
      "cultural": 6817,
      "faith": 6818,
      "faulty": 6819,
      "furry": 6820,
      "greek": 6821,
      "kesman": 6822,
      "miserables": 6823,
      "madness": 6824,
      "madison": 6825,
      "slice": 6826,
      "slashing": 6827,
      "stairwell": 6828,
      "quilts": 6829,
      "immunother": 6830,
      "defence": 6831,
      "weekend": 6832,
      "grandparent": 6833,
      "interesting": 6834,
      "syndr": 6835,
      "synonym": 6836,
      "materials": 6837,
      "policeman": 6838,
      "snowstorm": 6839,
      "included": 6840,
      "provider": 6841,
      "graphite": 6842,
      "binding": 6843,
      "copy": 6844,
      "copies": 6845,
      "copulate": 6846,
      "copulating": 6847,
      "desired": 6848,
      "hats": 6849,
      "hatred": 6850,
      "hours": 6851,
      "hourglass": 6852,
      "ithm": 6853,
      "lux": 6854,
      "lucent": 6855,
      "sandwich": 6856,
      "incere": 6857,
      "incidence": 6858,
      "islands": 6859,
      "vehicles": 6860,
      "tears": 6861,
      "profits": 6862,
      "strategies": 6863,
      "costing": 6864,
      "skiing": 6865,
      "surprising": 6866,
      "populate": 6867,
      "populations": 6868,
      "textured": 6869,
      "kittens": 6870,
      "castle": 6871,
      "flea": 6872,
      "fairy": 6873,
      "nicer": 6874,
      "niche": 6875,
      "nicely": 6876,
      "pathogen": 6877,
      "suspic": 6878,
      "suspension": 6879,
      "reports": 6880,
      "returning": 6881,
      "stabbing": 6882,
      "vertically": 6883,
      "decorator": 6884,
      "accum": 6885,
      "speedboat": 6886,
      "lawyers": 6887,
      "delivering": 6888,
      "responsible": 6889,
      "leadership": 6890,
      "chemicals": 6891,
      "aware": 6892,
      "axe": 6893,
      "cule": 6894,
      "cuisine": 6895,
      "foolish": 6896,
      "harmony": 6897,
      "harmonic": 6898,
      "loneliness": 6899,
      "oklahom": 6900,
      "squash": 6901,
      "timer": 6902,
      "timely": 6903,
      "vitamins": 6904,
      "allowing": 6905,
      "peanuts": 6906,
      "tailor": 6907,
      "convicted": 6908,
      "clubs": 6909,
      "applying": 6910,
      "preventing": 6911,
      "prevention": 6912,
      "prevented": 6913,
      "weapons": 6914,
      "scientific": 6915,
      "individuals": 6916,
      "employer": 6917,
      "blowfish": 6918,
      "discusses": 6919,
      "collecting": 6920,
      "detector": 6921,
      "technique": 6922,
      "aims": 6923,
      "bidet": 6924,
      "bonds": 6925,
      "circum": 6926,
      "ferret": 6927,
      "hua": 6928,
      "lantern": 6929,
      "mugs": 6930,
      "oxid": 6931,
      "turkey": 6932,
      "turtle": 6933,
      "invention": 6934,
      "separating": 6935,
      "issues": 6936,
      "illips": 6937,
      "urban": 6938,
      "debt": 6939,
      "debts": 6940,
      "deadly": 6941,
      "cruel": 6942,
      "cruise": 6943,
      "crushing": 6944,
      "shooting": 6945,
      "tiredness": 6946,
      "screws": 6947,
      "screwdriver": 6948,
      "errands": 6949,
      "dollars": 6950,
      "profession": 6951,
      "customers": 6952,
      "Chinese": 6953,
      "crops": 6954,
      "digest": 6955,
      "digital": 6956,
      "focuses": 6957,
      "millions": 6958,
      "sample": 6959,
      "samba": 6960,
      "wager": 6961,
      "itorium": 6962,
      "shuttle": 6963,
      "shuttles": 6964,
      "existing": 6965,
      "liberia": 6966,
      "dempster": 6967,
      "democracy": 6968,
      "approach": 6969,
      "approval": 6970,
      "poorer": 6971,
      "stripper": 6972,
      "loads": 6973,
      "loaded": 6974,
      "skateboard": 6975,
      "2000": 6976,
      "cockroach": 6977,
      "efficacy": 6978,
      "latin": 6979,
      "latte": 6980,
      "lucas": 6981,
      "passenger": 6982,
      "rabbi": 6983,
      "rabbit": 6984,
      "sincerity": 6985,
      "tortillas": 6986,
      "viruses": 6987,
      "witness": 6988,
      "machines": 6989,
      "nearby": 6990,
      "crabby": 6991,
      "saudi": 6992,
      "schedules": 6993,
      "survivor": 6994,
      "surrounding": 6995,
      "attached": 6996,
      "candidates": 6997,
      "bottoms": 6998,
      "analyse": 6999,
      "districts": 7000,
      "silverware": 7001,
      "murderer": 7002,
      "affair": 7003,
      "awards": 7004,
      "catheter": 7005,
      "ginger": 7006,
      "habits": 7007,
      "habitat": 7008,
      "janitor": 7009,
      "jackson": 7010,
      "laysan": 7011,
      "nasal": 7012,
      "obesity": 7013,
      "pumping": 7014,
      "orders": 7015,
      "represented": 7016,
      "remains": 7017,
      "revolution": 7018,
      "arabic": 7019,
      "allevi": 7020,
      "robber": 7021,
      "robbed": 7022,
      "consecut": 7023,
      "pagan": 7024,
      "feeding": 7025,
      "devil": 7026,
      "devices": 7027,
      "necklace": 7028,
      "dramat": 7029,
      "dramatic": 7030,
      "applause": 7031,
      "trays": 7032,
      "offered": 7033,
      "chewy": 7034,
      "caffeine": 7035,
      "situations": 7036,
      "heroes": 7037,
      "affecting": 7038,
      "concerns": 7039,
      "promotes": 7040,
      "promoted": 7041,
      "milky": 7042,
      "symptom": 7043,
      "weddings": 7044,
      "lucky": 7045,
      "wonderful": 7046,
      "execution": 7047,
      "appreciation": 7048,
      "European": 7049,
      "aerob": 7050,
      "african": 7051,
      "bunny": 7052,
      "bungee": 7053,
      "bachel": 7054,
      "bachman": 7055,
      "cinoma": 7056,
      "diminish": 7057,
      "glyca": 7058,
      "glycemic": 7059,
      "palm": 7060,
      "pigs": 7061,
      "vetiver": 7062,
      "widely": 7063,
      "widespread": 7064,
      "thirsty": 7065,
      "rebels": 7066,
      "argument": 7067,
      "outerspace": 7068,
      "rodent": 7069,
      "celtic": 7070,
      "adaptable": 7071,
      "adaptive": 7072,
      "adjustable": 7073,
      "railing": 7074,
      "terminal": 7075,
      "terminator": 7076,
      "terrorist": 7077,
      "constant": 7078,
      "exciting": 7079,
      "exhibit": 7080,
      "exhibits": 7081,
      "budget": 7082,
      "buckle": 7083,
      "bucket": 7084,
      "suffering": 7085,
      "drums": 7086,
      "trustworthy": 7087,
      "introduce": 7088,
      "british": 7089,
      "britain": 7090,
      "accessory": 7091,
      "according": 7092,
      "accordion": 7093,
      "certificat": 7094,
      "officials": 7095,
      "canoeing": 7096,
      "pennsylvania": 7097,
      "delicious": 7098,
      "mythology": 7099,
      "hydration": 7100,
      "instructor": 7101,
      "increasingly": 7102,
      "script": 7103,
      "distribut": 7104,
      "structures": 7105,
      "Manhattan": 7106,
      "Manager": 7107,
      "auditorium": 7108,
      "boundary": 7109,
      "browser": 7110,
      "browsing": 7111,
      "cereal": 7112,
      "ceremon": 7113,
      "dandy": 7114,
      "dandruff": 7115,
      "felt": 7116,
      "ibes": 7117,
      "linda": 7118,
      "nurse": 7119,
      "soothe": 7120,
      "soothing": 7121,
      "eraser": 7122,
      "onomy": 7123,
      "astronom": 7124,
      "astronaut": 7125,
      "enlightenment": 7126,
      "repeat": 7127,
      "repeated": 7128,
      "ocarcinoma": 7129,
      "occupied": 7130,
      "qualifications": 7131,
      "shorter": 7132,
      "shortage": 7133,
      "contentment": 7134,
      "conservation": 7135,
      "conservative": 7136,
      "expense": 7137,
      "expenses": 7138,
      "extreme": 7139,
      "extremely": 7140,
      "extracted": 7141,
      "modif": 7142,
      "poisonous": 7143,
      "scott": 7144,
      "scotland": 7145,
      "accepted": 7146,
      "sensation": 7147,
      "crisis": 7148,
      "crumple": 7149,
      "wrinkle": 7150,
      "florida": 7151,
      "interpretation": 7152,
      "pucker": 7153,
      "dynamic": 7154,
      "dynamite": 7155,
      "troops": 7156,
      "metabolism": 7157,
      "condominium": 7158,
      "explosive": 7159,
      "publisher": 7160,
      "vessels": 7161,
      "elephant": 7162,
      "elephants": 7163,
      "historic": 7164,
      "historical": 7165,
      "scrambled": 7166,
      "flexible": 7167,
      "thanksgiving": 7168,
      "squares": 7169,
      "beneficial": 7170,
      "pumpkin": 7171,
      "thousands": 7172,
      "Afghan": 7173,
      "CVD": 7174,
      "Canada": 7175,
      "Pacific": 7176,
      "Syr": 7177,
      "Street": 7178,
      "SymbolOf": 7179,
      "Web": 7180,
      "august": 7181,
      "bloom": 7182,
      "baker": 7183,
      "category": 7184,
      "eighth": 7185,
      "gourd": 7186,
      "korean": 7187,
      "kicked": 7188,
      "license": 7189,
      "linked": 7190,
      "martial": 7191,
      "nitrogen": 7192,
      "nchus": 7193,
      "pizza": 7194,
      "rigid": 7195,
      "ruler": 7196,
      "ratings": 7197,
      "skeleton": 7198,
      "socks": 7199,
      "tidy": 7200,
      "vocabul": 7201,
      "vagina": 7202,
      "vodka": 7203,
      "wisdom": 7204,
      "insulin": 7205,
      "severe": 7206,
      "enhancing": 7207,
      "annoy": 7208,
      "retrie": 7209,
      "retirement": 7210,
      "recyclable": 7211,
      "escaping": 7212,
      "tolerance": 7213,
      "period": 7214,
      "chlorophy": 7215,
      "eliminate": 7216,
      "uncertainty": 7217,
      "pluto": 7218,
      "adenocarcinoma": 7219,
      "immediately": 7220,
      "pepsi": 7221,
      "comedian": 7222,
      "conceived": 7223,
      "consult": 7224,
      "convenient": 7225,
      "exhaustion": 7226,
      "pajamas": 7227,
      "proportional": 7228,
      "deeply": 7229,
      "decrease": 7230,
      "delegation": 7231,
      "deodorant": 7232,
      "nevada": 7233,
      "preferable": 7234,
      "wealthy": 7235,
      "spokesman": 7236,
      "loyal": 7237,
      "carnivore": 7238,
      "phalus": 7239,
      "completed": 7240,
      "coordination": 7241,
      "embarassment": 7242,
      "acquired": 7243,
      "epidemiological": 7244,
      "critical": 7245,
      "crumbs": 7246,
      "wristwatch": 7247,
      "prisons": 7248,
      "paperclips": 7249,
      "ketchup": 7250,
      "discovery": 7251,
      "counseling": 7252,
      "interviews": 7253,
      "vietnam": 7254,
      "fulfillment": 7255,
      "horizontal": 7256,
      "genetically": 7257,
      "QUANT_O_2": 7258,
      "thrombosis": 7259,
      "legislation": 7260,
      "hydrogen": 7261,
      "cymbal": 7262,
      "mushroom": 7263,
      "valuable": 7264,
      "relevant": 7265,
      "bulgaria": 7266,
      "experiencing": 7267,
      "dolphin": 7268,
      "malignant": 7269,
      "distinctive": 7270,
      "adolescents": 7271,
      "participate": 7272,
      "variable": 7273,
      "demonstrates": 7274,
      "negotiation": 7275,
      "Christmas": 7276,
      "consequence": 7277,
      "Australia": 7278,
      "dimension": 7279,
      "journalists": 7280,
      "masturbate": 7281,
      "russia": 7282,
      "olympics": 7283,
      "intelligence": 7284,
      "County": 7285,
      "Cortes": 7286,
      "Court": 7287,
      "Central": 7288,
      "Dudley": 7289,
      "District": 7290,
      "Federal": 7291,
      "Friday": 7292,
      "Greenwich": 7293,
      "Halloween": 7294,
      "Hawaii": 7295,
      "Iraq": 7296,
      "RelatedTo": 7297,
      "Republ": 7298,
      "Scout": 7299,
      "Smith": 7300,
      "Saturday": 7301,
      "Virginia": 7302,
      "Wollman": 7303,
      "Windows": 7304,
      "William": 7305,
      "Washington": 7306,
      "casserole": 7307,
      "census": 7308,
      "dexterity": 7309,
      "duties": 7310,
      "dhism": 7311,
      "dinosaur": 7312,
      "eiffel": 7313,
      "gopan": 7314,
      "hoover": 7315,
      "iopia": 7316,
      "iberia": 7317,
      "jellyfish": 7318,
      "jazz": 7319,
      "kansa": 7320,
      "lenses": 7321,
      "loft": 7322,
      "loosen": 7323,
      "nocturnal": 7324,
      "ostrich": 7325,
      "ogham": 7326,
      "random": 7327,
      "skeptic": 7328,
      "tinder": 7329,
      "tangible": 7330,
      "utah": 7331,
      "village": 7332,
      "wilson": 7333,
      "yoyo": 7334,
      "yawn": 7335,
      "incandescent": 7336,
      "injuries": 7337,
      "infarction": 7338,
      "aspects": 7339,
      "orchard": 7340,
      "oranges": 7341,
      "thailand": 7342,
      "enthusi": 7343,
      "ankees": 7344,
      "reorganization": 7345,
      "resources": 7346,
      "recruit": 7347,
      "archeologists": 7348,
      "arizona": 7349,
      "alabama": 7350,
      "algorithm": 7351,
      "itutional": 7352,
      "stroke": 7353,
      "esophageal": 7354,
      "especially": 7355,
      "absurd": 7356,
      "abriel": 7357,
      "iceland": 7358,
      "permanent": 7359,
      "perspiration": 7360,
      "octopus": 7361,
      "chimney": 7362,
      "chapel": 7363,
      "championship": 7364,
      "etzea": 7365,
      "ambulance": 7366,
      "amnesia": 7367,
      "unprecedented": 7368,
      "adversaries": 7369,
      "imprisonment": 7370,
      "geographic": 7371,
      "territory": 7372,
      "combust": 7373,
      "exposure": 7374,
      "excellent": 7375,
      "heavier": 7376,
      "moschatus": 7377,
      "degrees": 7378,
      "antiseptic": 7379,
      "antioxid": 7380,
      "presidents": 7381,
      "prescription": 7382,
      "sprinkler": 7383,
      "mezzanine": 7384,
      "manifestation": 7385,
      "manufacturer": 7386,
      "carried": 7387,
      "cosmetic": 7388,
      "emissions": 7389,
      "embroider": 7390,
      "accelerator": 7391,
      "chemotherapy": 7392,
      "corhynchus": 7393,
      "bazaar": 7394,
      "curiosity": 7395,
      "businesses": 7396,
      "longitudinal": 7397,
      "atheroscler": 7398,
      "frequently": 7399,
      "holbrooke": 7400,
      "myocardial": 7401,
      "muhammad": 7402,
      "chromatograph": 7403,
      "merchandise": 7404,
      "receptacle": 7405,
      "linoleum": 7406,
      "refugees": 7407,
      "chemistry": 7408,
      "oklahoma": 7409,
      "vocabulary": 7410,
      "Republican": 7411
    },
    "merges": [
      [
        "i",
        "n"
      ],
      [
        "e",
        "r"
      ],
      [
        "o",
        "n"
      ],
      [
        "a",
        "t"
      ],
      [
        "a",
        "s"
      ],
      [
        "o",
        "r"
      ],
      [
        "s",
        "e"
      ],
      [
        "t",
        "h"
      ],
      [
        "e",
        "n"
      ],
      [
        "l",
        "e"
      ],
      [
        "a",
        "n"
      ],
      [
        "r",
        "e"
      ],
      [
        "in",
        "g"
      ],
      [
        "H",
        "as"
      ],
      [
        "i",
        "on"
      ],
      [
        "a",
        "r"
      ],
      [
        "a",
        "l"
      ],
      [
        "i",
        "t"
      ],
      [
        "o",
        "u"
      ],
      [
        "s",
        "t"
      ],
      [
        "b",
        "e"
      ],
      [
        "C",
        "a"
      ],
      [
        "o",
        "m"
      ],
      [
        "i",
        "s"
      ],
      [
        "en",
        "t"
      ],
      [
        "e",
        "s"
      ],
      [
        "a",
        "b"
      ],
      [
        "th",
        "e"
      ],
      [
        "r",
        "o"
      ],
      [
        "at",
        "ion"
      ],
      [
        "i",
        "c"
      ],
      [
        "t",
        "o"
      ],
      [
        "p",
        "er"
      ],
      [
        "e",
        "d"
      ],
      [
        "ab",
        "le"
      ],
      [
        "se",
        "d"
      ],
      [
        "o",
        "c"
      ],
      [
        "O",
        "f"
      ],
      [
        "i",
        "v"
      ],
      [
        "Has",
        "P"
      ],
      [
        "c",
        "h"
      ],
      [
        "F",
        "or"
      ],
      [
        "U",
        "sed"
      ],
      [
        "Used",
        "For"
      ],
      [
        "o",
        "f"
      ],
      [
        "Ca",
        "p"
      ],
      [
        "able",
        "Of"
      ],
      [
        "Cap",
        "ableOf"
      ],
      [
        "I",
        "s"
      ],
      [
        "Is",
        "A"
      ],
      [
        "o",
        "t"
      ],
      [
        "e",
        "t"
      ],
      [
        "oc",
        "ation"
      ],
      [
        "A",
        "t"
      ],
      [
        "L",
        "ocation"
      ],
      [
        "At",
        "Location"
      ],
      [
        "v",
        "ent"
      ],
      [
        "y",
        "ou"
      ],
      [
        "c",
        "e"
      ],
      [
        "S",
        "u"
      ],
      [
        "be",
        "vent"
      ],
      [
        "Su",
        "bevent"
      ],
      [
        "c",
        "t"
      ],
      [
        "q",
        "u"
      ],
      [
        "u",
        "se"
      ],
      [
        "om",
        "e"
      ],
      [
        "it",
        "e"
      ],
      [
        "er",
        "e"
      ],
      [
        "i",
        "l"
      ],
      [
        "o",
        "o"
      ],
      [
        "Has",
        "Subevent"
      ],
      [
        "t",
        "y"
      ],
      [
        "i",
        "r"
      ],
      [
        "a",
        "m"
      ],
      [
        "e",
        "l"
      ],
      [
        "s",
        "ome"
      ],
      [
        "qu",
        "is"
      ],
      [
        "r",
        "ere"
      ],
      [
        "HasP",
        "rere"
      ],
      [
        "quis",
        "ite"
      ],
      [
        "HasPrere",
        "quisite"
      ],
      [
        "f",
        "or"
      ],
      [
        "u",
        "n"
      ],
      [
        "use",
        "s"
      ],
      [
        "a",
        "y"
      ],
      [
        "p",
        "l"
      ],
      [
        "Ca",
        "uses"
      ],
      [
        "an",
        "d"
      ],
      [
        "a",
        "d"
      ],
      [
        "k",
        "e"
      ],
      [
        "on",
        "e"
      ],
      [
        "o",
        "l"
      ],
      [
        "v",
        "e"
      ],
      [
        "ro",
        "per"
      ],
      [
        "roper",
        "ty"
      ],
      [
        "HasP",
        "roperty"
      ],
      [
        "u",
        "r"
      ],
      [
        "i",
        "g"
      ],
      [
        "i",
        "d"
      ],
      [
        "o",
        "w"
      ],
      [
        "i",
        "m"
      ],
      [
        "i",
        "re"
      ],
      [
        "s",
        "on"
      ],
      [
        "s",
        "h"
      ],
      [
        "o",
        "p"
      ],
      [
        "per",
        "son"
      ],
      [
        "you",
        "r"
      ],
      [
        "g",
        "e"
      ],
      [
        "al",
        "l"
      ],
      [
        "p",
        "e"
      ],
      [
        "h",
        "a"
      ],
      [
        "m",
        "a"
      ],
      [
        "r",
        "a"
      ],
      [
        "t",
        "e"
      ],
      [
        "u",
        "m"
      ],
      [
        "t",
        "er"
      ],
      [
        "at",
        "ed"
      ],
      [
        "g",
        "o"
      ],
      [
        "ct",
        "ion"
      ],
      [
        "c",
        "om"
      ],
      [
        "t",
        "a"
      ],
      [
        "es",
        "ire"
      ],
      [
        "g",
        "et"
      ],
      [
        "th",
        "ing"
      ],
      [
        "D",
        "esire"
      ],
      [
        "f",
        "r"
      ],
      [
        "at",
        "e"
      ],
      [
        "c",
        "on"
      ],
      [
        "ig",
        "h"
      ],
      [
        "c",
        "l"
      ],
      [
        "u",
        "s"
      ],
      [
        "e",
        "x"
      ],
      [
        "o",
        "al"
      ],
      [
        "iv",
        "e"
      ],
      [
        "B",
        "y"
      ],
      [
        "p",
        "a"
      ],
      [
        "ot",
        "iv"
      ],
      [
        "ated",
        "By"
      ],
      [
        "oo",
        "d"
      ],
      [
        "G",
        "oal"
      ],
      [
        "M",
        "otiv"
      ],
      [
        "atedBy",
        "Goal"
      ],
      [
        "Motiv",
        "atedByGoal"
      ],
      [
        "e",
        "ce"
      ],
      [
        "v",
        "er"
      ],
      [
        "f",
        "in"
      ],
      [
        "p",
        "ro"
      ],
      [
        "h",
        "e"
      ],
      [
        "l",
        "i"
      ],
      [
        "iv",
        "es"
      ],
      [
        "m",
        "o"
      ],
      [
        "f",
        "e"
      ],
      [
        "A",
        "ction"
      ],
      [
        "R",
        "ece"
      ],
      [
        "ives",
        "Action"
      ],
      [
        "Rece",
        "ivesAction"
      ],
      [
        "d",
        "i"
      ],
      [
        "d",
        "e"
      ],
      [
        "c",
        "k"
      ],
      [
        "ar",
        "t"
      ],
      [
        "w",
        "i"
      ],
      [
        "n",
        "e"
      ],
      [
        "b",
        "u"
      ],
      [
        "an",
        "t"
      ],
      [
        "oo",
        "k"
      ],
      [
        "s",
        "u"
      ],
      [
        "ou",
        "n"
      ],
      [
        "wi",
        "th"
      ],
      [
        "igh",
        "t"
      ],
      [
        "en",
        "d"
      ],
      [
        "Has",
        "A"
      ],
      [
        "d",
        "r"
      ],
      [
        "ou",
        "t"
      ],
      [
        "w",
        "or"
      ],
      [
        "as",
        "s"
      ],
      [
        "ar",
        "d"
      ],
      [
        "ha",
        "ve"
      ],
      [
        "a",
        "p"
      ],
      [
        "t",
        "r"
      ],
      [
        "p",
        "re"
      ],
      [
        "w",
        "e"
      ],
      [
        "in",
        "e"
      ],
      [
        "N",
        "ot"
      ],
      [
        "some",
        "one"
      ],
      [
        "b",
        "o"
      ],
      [
        "some",
        "thing"
      ],
      [
        "m",
        "ent"
      ],
      [
        "pl",
        "ay"
      ],
      [
        "u",
        "l"
      ],
      [
        "s",
        "p"
      ],
      [
        "Desire",
        "s"
      ],
      [
        "il",
        "l"
      ],
      [
        "as",
        "t"
      ],
      [
        "s",
        "s"
      ],
      [
        "m",
        "e"
      ],
      [
        "or",
        "e"
      ],
      [
        "it",
        "y"
      ],
      [
        "p",
        "o"
      ],
      [
        "th",
        "er"
      ],
      [
        "m",
        "an"
      ],
      [
        "l",
        "a"
      ],
      [
        "st",
        "r"
      ],
      [
        "w",
        "at"
      ],
      [
        "a",
        "re"
      ],
      [
        "g",
        "r"
      ],
      [
        "u",
        "t"
      ],
      [
        "d",
        "o"
      ],
      [
        "ic",
        "e"
      ],
      [
        "id",
        "e"
      ],
      [
        "l",
        "y"
      ],
      [
        "w",
        "h"
      ],
      [
        "l",
        "o"
      ],
      [
        "c",
        "ar"
      ],
      [
        "u",
        "p"
      ],
      [
        "or",
        "t"
      ],
      [
        "es",
        "s"
      ],
      [
        "a",
        "g"
      ],
      [
        "a",
        "ge"
      ],
      [
        "e",
        "at"
      ],
      [
        "at",
        "h"
      ],
      [
        "D",
        "e"
      ],
      [
        "c",
        "le"
      ],
      [
        "i",
        "st"
      ],
      [
        "s",
        "c"
      ],
      [
        "op",
        "le"
      ],
      [
        "pe",
        "ople"
      ],
      [
        "fin",
        "ed"
      ],
      [
        "A",
        "s"
      ],
      [
        "i",
        "e"
      ],
      [
        "as",
        "e"
      ],
      [
        "De",
        "fined"
      ],
      [
        "Defined",
        "As"
      ],
      [
        "p",
        "h"
      ],
      [
        "ma",
        "ke"
      ],
      [
        "com",
        "p"
      ],
      [
        "k",
        "ing"
      ],
      [
        "er",
        "s"
      ],
      [
        "c",
        "o"
      ],
      [
        "u",
        "re"
      ],
      [
        "ol",
        "d"
      ],
      [
        "in",
        "t"
      ],
      [
        "is",
        "h"
      ],
      [
        "a",
        "ir"
      ],
      [
        "in",
        "d"
      ],
      [
        "j",
        "o"
      ],
      [
        "Causes",
        "Desire"
      ],
      [
        "t",
        "ra"
      ],
      [
        "g",
        "ood"
      ],
      [
        "b",
        "r"
      ],
      [
        "e",
        "m"
      ],
      [
        "am",
        "e"
      ],
      [
        "ne",
        "w"
      ],
      [
        "a",
        "c"
      ],
      [
        "e",
        "p"
      ],
      [
        "i",
        "f"
      ],
      [
        "b",
        "y"
      ],
      [
        "se",
        "n"
      ],
      [
        "i",
        "p"
      ],
      [
        "b",
        "er"
      ],
      [
        "ic",
        "k"
      ],
      [
        "bu",
        "y"
      ],
      [
        "ou",
        "se"
      ],
      [
        "ic",
        "al"
      ],
      [
        "b",
        "ook"
      ],
      [
        "ou",
        "r"
      ],
      [
        "cl",
        "o"
      ],
      [
        "o",
        "ther"
      ],
      [
        "il",
        "d"
      ],
      [
        "ir",
        "st"
      ],
      [
        "b",
        "re"
      ],
      [
        "c",
        "r"
      ],
      [
        "w",
        "ay"
      ],
      [
        "as",
        "h"
      ],
      [
        "p",
        "ar"
      ],
      [
        "fr",
        "om"
      ],
      [
        "c",
        "er"
      ],
      [
        "for",
        "m"
      ],
      [
        "oun",
        "d"
      ],
      [
        "m",
        "ar"
      ],
      [
        "wor",
        "k"
      ],
      [
        "a",
        "k"
      ],
      [
        "a",
        "ch"
      ],
      [
        "c",
        "re"
      ],
      [
        "a",
        "ct"
      ],
      [
        "b",
        "all"
      ],
      [
        "k",
        "n"
      ],
      [
        "g",
        "h"
      ],
      [
        "t",
        "ing"
      ],
      [
        "ar",
        "n"
      ],
      [
        "a",
        "ce"
      ],
      [
        "el",
        "l"
      ],
      [
        "w",
        "r"
      ],
      [
        "se",
        "e"
      ],
      [
        "f",
        "ood"
      ],
      [
        "d",
        "u"
      ],
      [
        "of",
        "f"
      ],
      [
        "d",
        "er"
      ],
      [
        "h",
        "ouse"
      ],
      [
        "p",
        "r"
      ],
      [
        "ta",
        "in"
      ],
      [
        "re",
        "st"
      ],
      [
        "ow",
        "n"
      ],
      [
        "wat",
        "er"
      ],
      [
        "or",
        "y"
      ],
      [
        "th",
        "at"
      ],
      [
        "c",
        "an"
      ],
      [
        "f",
        "l"
      ],
      [
        "h",
        "um"
      ],
      [
        "th",
        "is"
      ],
      [
        "an",
        "ce"
      ],
      [
        "ta",
        "ke"
      ],
      [
        "m",
        "us"
      ],
      [
        "i",
        "se"
      ],
      [
        "i",
        "al"
      ],
      [
        "ar",
        "m"
      ],
      [
        "fin",
        "d"
      ],
      [
        "ou",
        "s"
      ],
      [
        "in",
        "k"
      ],
      [
        "oo",
        "l"
      ],
      [
        "fr",
        "i"
      ],
      [
        "u",
        "d"
      ],
      [
        "hum",
        "an"
      ],
      [
        "an",
        "g"
      ],
      [
        "b",
        "l"
      ],
      [
        "i",
        "es"
      ],
      [
        "en",
        "ce"
      ],
      [
        "Not",
        "Desires"
      ],
      [
        "fri",
        "end"
      ],
      [
        "al",
        "k"
      ],
      [
        "i",
        "le"
      ],
      [
        "pa",
        "per"
      ],
      [
        "s",
        "a"
      ],
      [
        "ch",
        "e"
      ],
      [
        "com",
        "m"
      ],
      [
        "_",
        "1"
      ],
      [
        "j",
        "e"
      ],
      [
        "le",
        "arn"
      ],
      [
        "f",
        "f"
      ],
      [
        "re",
        "ad"
      ],
      [
        "ro",
        "om"
      ],
      [
        "im",
        "e"
      ],
      [
        "e",
        "ar"
      ],
      [
        "p",
        "le"
      ],
      [
        "one",
        "y"
      ],
      [
        "F",
        "irst"
      ],
      [
        "Has",
        "First"
      ],
      [
        "ro",
        "w"
      ],
      [
        "HasFirst",
        "Subevent"
      ],
      [
        "s",
        "m"
      ],
      [
        "se",
        "l"
      ],
      [
        "wat",
        "ch"
      ],
      [
        "m",
        "oney"
      ],
      [
        "n",
        "o"
      ],
      [
        "n",
        "ot"
      ],
      [
        "u",
        "e"
      ],
      [
        "v",
        "el"
      ],
      [
        "re",
        "e"
      ],
      [
        "ver",
        "y"
      ],
      [
        "ab",
        "out"
      ],
      [
        "b",
        "le"
      ],
      [
        "f",
        "un"
      ],
      [
        "g",
        "l"
      ],
      [
        "l",
        "d"
      ],
      [
        "ic",
        "t"
      ],
      [
        "p",
        "ort"
      ],
      [
        "v",
        "ing"
      ],
      [
        "i",
        "a"
      ],
      [
        "on",
        "g"
      ],
      [
        "st",
        "ore"
      ],
      [
        "Not",
        "CapableOf"
      ],
      [
        "man",
        "y"
      ],
      [
        "i",
        "an"
      ],
      [
        "k",
        "et"
      ],
      [
        "be",
        "t"
      ],
      [
        "c",
        "or"
      ],
      [
        "s",
        "k"
      ],
      [
        "s",
        "er"
      ],
      [
        "d",
        "is"
      ],
      [
        "c",
        "a"
      ],
      [
        "c",
        "ome"
      ],
      [
        "c",
        "ol"
      ],
      [
        "l",
        "ight"
      ],
      [
        "v",
        "ie"
      ],
      [
        "c",
        "oun"
      ],
      [
        "v",
        "is"
      ],
      [
        "w",
        "a"
      ],
      [
        "i",
        "z"
      ],
      [
        "m",
        "ore"
      ],
      [
        "p",
        "en"
      ],
      [
        "r",
        "un"
      ],
      [
        "P",
        "art"
      ],
      [
        "h",
        "is"
      ],
      [
        "u",
        "ter"
      ],
      [
        "th",
        "an"
      ],
      [
        "Part",
        "Of"
      ],
      [
        "cle",
        "an"
      ],
      [
        "sh",
        "ow"
      ],
      [
        "ex",
        "am"
      ],
      [
        "L",
        "ast"
      ],
      [
        "t",
        "en"
      ],
      [
        "Has",
        "Last"
      ],
      [
        "pl",
        "an"
      ],
      [
        "HasLast",
        "Subevent"
      ],
      [
        "kn",
        "ow"
      ],
      [
        "mus",
        "ic"
      ],
      [
        "c",
        "ook"
      ],
      [
        "t",
        "able"
      ],
      [
        "t",
        "ime"
      ],
      [
        "ar",
        "y"
      ],
      [
        "te",
        "le"
      ],
      [
        "o",
        "b"
      ],
      [
        "the",
        "ir"
      ],
      [
        "y",
        "s"
      ],
      [
        "fe",
        "el"
      ],
      [
        "comp",
        "uter"
      ],
      [
        "a",
        "in"
      ],
      [
        "r",
        "y"
      ],
      [
        "s",
        "y"
      ],
      [
        "je",
        "ct"
      ],
      [
        "b",
        "a"
      ],
      [
        "s",
        "pe"
      ],
      [
        "al",
        "th"
      ],
      [
        "the",
        "m"
      ],
      [
        "ad",
        "e"
      ],
      [
        "g",
        "ame"
      ],
      [
        "ou",
        "gh"
      ],
      [
        "ch",
        "ild"
      ],
      [
        "pl",
        "ace"
      ],
      [
        "ur",
        "n"
      ],
      [
        "ha",
        "ir"
      ],
      [
        "s",
        "ch"
      ],
      [
        "at",
        "ing"
      ],
      [
        "le",
        "t"
      ],
      [
        "sh",
        "op"
      ],
      [
        "p",
        "at"
      ],
      [
        "s",
        "ur"
      ],
      [
        "s",
        "w"
      ],
      [
        "ur",
        "ant"
      ],
      [
        "c",
        "ur"
      ],
      [
        "d",
        "ay"
      ],
      [
        "g",
        "y"
      ],
      [
        "h",
        "ome"
      ],
      [
        "p",
        "t"
      ],
      [
        "s",
        "it"
      ],
      [
        "w",
        "alk"
      ],
      [
        "st",
        "and"
      ],
      [
        "he",
        "alth"
      ],
      [
        "d",
        "own"
      ],
      [
        "l",
        "l"
      ],
      [
        "in",
        "ter"
      ],
      [
        "oc",
        "k"
      ],
      [
        "N",
        "T"
      ],
      [
        "i",
        "ent"
      ],
      [
        "u",
        "st"
      ],
      [
        "at",
        "t"
      ],
      [
        "se",
        "t"
      ],
      [
        "do",
        "g"
      ],
      [
        "A",
        "NT"
      ],
      [
        "Q",
        "U"
      ],
      [
        "a",
        "urant"
      ],
      [
        "f",
        "ish"
      ],
      [
        "l",
        "ook"
      ],
      [
        "le",
        "d"
      ],
      [
        "ANT",
        "_"
      ],
      [
        "QU",
        "ANT_"
      ],
      [
        "e",
        "st"
      ],
      [
        "ig",
        "n"
      ],
      [
        "rest",
        "aurant"
      ],
      [
        "p",
        "u"
      ],
      [
        "p",
        "ass"
      ],
      [
        "v",
        "i"
      ],
      [
        "pre",
        "ss"
      ],
      [
        "me",
        "m"
      ],
      [
        "b",
        "us"
      ],
      [
        "c",
        "at"
      ],
      [
        "d",
        "re"
      ],
      [
        "f",
        "ire"
      ],
      [
        "l",
        "ar"
      ],
      [
        "u",
        "g"
      ],
      [
        "in",
        "n"
      ],
      [
        "op",
        "en"
      ],
      [
        "go",
        "ing"
      ],
      [
        "f",
        "ul"
      ],
      [
        "sen",
        "t"
      ],
      [
        "h",
        "igh"
      ],
      [
        "in",
        "to"
      ],
      [
        "su",
        "b"
      ],
      [
        "new",
        "s"
      ],
      [
        "sel",
        "f"
      ],
      [
        "g",
        "re"
      ],
      [
        "h",
        "old"
      ],
      [
        "o",
        "ver"
      ],
      [
        "s",
        "ing"
      ],
      [
        "dr",
        "ive"
      ],
      [
        "al",
        "s"
      ],
      [
        "li",
        "st"
      ],
      [
        "b",
        "ar"
      ],
      [
        "d",
        "y"
      ],
      [
        "g",
        "er"
      ],
      [
        "h",
        "el"
      ],
      [
        "m",
        "at"
      ],
      [
        "le",
        "s"
      ],
      [
        "st",
        "ate"
      ],
      [
        "be",
        "come"
      ],
      [
        "bre",
        "ak"
      ],
      [
        "sch",
        "ool"
      ],
      [
        "c",
        "ard"
      ],
      [
        "d",
        "es"
      ],
      [
        "h",
        "or"
      ],
      [
        "m",
        "on"
      ],
      [
        "it",
        "s"
      ],
      [
        "ne",
        "ed"
      ],
      [
        "p",
        "ay"
      ],
      [
        "an",
        "im"
      ],
      [
        "ke",
        "y"
      ],
      [
        "get",
        "ting"
      ],
      [
        "li",
        "fe"
      ],
      [
        "mo",
        "st"
      ],
      [
        "sp",
        "ort"
      ],
      [
        "g",
        "en"
      ],
      [
        "h",
        "o"
      ],
      [
        "h",
        "as"
      ],
      [
        "l",
        "and"
      ],
      [
        "w",
        "ash"
      ],
      [
        "in",
        "form"
      ],
      [
        "ion",
        "s"
      ],
      [
        "ke",
        "ep"
      ],
      [
        "wor",
        "ld"
      ],
      [
        "a",
        "v"
      ],
      [
        "g",
        "u"
      ],
      [
        "s",
        "ide"
      ],
      [
        "w",
        "as"
      ],
      [
        "le",
        "ct"
      ],
      [
        "st",
        "ud"
      ],
      [
        "bu",
        "ild"
      ],
      [
        "po",
        "int"
      ],
      [
        "f",
        "il"
      ],
      [
        "l",
        "ine"
      ],
      [
        "n",
        "um"
      ],
      [
        "w",
        "ill"
      ],
      [
        "an",
        "c"
      ],
      [
        "be",
        "d"
      ],
      [
        "ch",
        "an"
      ],
      [
        "un",
        "der"
      ],
      [
        "cl",
        "ass"
      ],
      [
        "pro",
        "du"
      ],
      [
        "tr",
        "y"
      ],
      [
        "gr",
        "am"
      ],
      [
        "e",
        "y"
      ],
      [
        "g",
        "ive"
      ],
      [
        "l",
        "ow"
      ],
      [
        "l",
        "ive"
      ],
      [
        "p",
        "ol"
      ],
      [
        "or",
        "s"
      ],
      [
        "all",
        "y"
      ],
      [
        "wr",
        "it"
      ],
      [
        "vis",
        "ion"
      ],
      [
        "QUANT_",
        "O"
      ],
      [
        "c",
        "al"
      ],
      [
        "f",
        "am"
      ],
      [
        "h",
        "and"
      ],
      [
        "p",
        "ut"
      ],
      [
        "se",
        "s"
      ],
      [
        "ent",
        "er"
      ],
      [
        "ty",
        "pe"
      ],
      [
        "di",
        "ff"
      ],
      [
        "me",
        "et"
      ],
      [
        "inform",
        "ation"
      ],
      [
        "a",
        "u"
      ],
      [
        "c",
        "ut"
      ],
      [
        "m",
        "ed"
      ],
      [
        "t",
        "ro"
      ],
      [
        "le",
        "ep"
      ],
      [
        "an",
        "other"
      ],
      [
        "is",
        "s"
      ],
      [
        "ra",
        "in"
      ],
      [
        "mo",
        "ve"
      ],
      [
        "wr",
        "ite"
      ],
      [
        "tele",
        "vision"
      ],
      [
        "b",
        "ase"
      ],
      [
        "c",
        "ity"
      ],
      [
        "e",
        "f"
      ],
      [
        "r",
        "ic"
      ],
      [
        "s",
        "oc"
      ],
      [
        "iv",
        "er"
      ],
      [
        "iv",
        "ing"
      ],
      [
        "il",
        "y"
      ],
      [
        "pl",
        "ant"
      ],
      [
        "pro",
        "gram"
      ],
      [
        "QUANT_O",
        "_1"
      ],
      [
        "f",
        "all"
      ],
      [
        "p",
        "art"
      ],
      [
        "t",
        "w"
      ],
      [
        "w",
        "ar"
      ],
      [
        "an",
        "y"
      ],
      [
        "to",
        "o"
      ],
      [
        "ex",
        "er"
      ],
      [
        "mo",
        "vie"
      ],
      [
        "la",
        "w"
      ],
      [
        "f",
        "ast"
      ],
      [
        "t",
        "re"
      ],
      [
        "st",
        "e"
      ],
      [
        "st",
        "re"
      ],
      [
        "wor",
        "d"
      ],
      [
        "sm",
        "all"
      ],
      [
        "h",
        "er"
      ],
      [
        "l",
        "ong"
      ],
      [
        "s",
        "o"
      ],
      [
        "at",
        "or"
      ],
      [
        "th",
        "r"
      ],
      [
        "re",
        "l"
      ],
      [
        "st",
        "ory"
      ],
      [
        "sh",
        "o"
      ],
      [
        "ul",
        "ar"
      ],
      [
        "ath",
        "er"
      ],
      [
        "che",
        "ck"
      ],
      [
        "lar",
        "ge"
      ],
      [
        "b",
        "ir"
      ],
      [
        "i",
        "o"
      ],
      [
        "p",
        "ing"
      ],
      [
        "y",
        "cle"
      ],
      [
        "bo",
        "x"
      ],
      [
        "s",
        "al"
      ],
      [
        "s",
        "leep"
      ],
      [
        "t",
        "urn"
      ],
      [
        "th",
        "ere"
      ],
      [
        "te",
        "st"
      ],
      [
        "li",
        "ke"
      ],
      [
        "di",
        "se"
      ],
      [
        "bo",
        "dy"
      ],
      [
        "ph",
        "one"
      ],
      [
        "jo",
        "y"
      ],
      [
        "fil",
        "m"
      ],
      [
        "diff",
        "er"
      ],
      [
        "b",
        "as"
      ],
      [
        "b",
        "ath"
      ],
      [
        "i",
        "ke"
      ],
      [
        "k",
        "ill"
      ],
      [
        "it",
        "al"
      ],
      [
        "ation",
        "s"
      ],
      [
        "pa",
        "int"
      ],
      [
        "wh",
        "en"
      ],
      [
        "tra",
        "vel"
      ],
      [
        "off",
        "ice"
      ],
      [
        "h",
        "un"
      ],
      [
        "i",
        "ence"
      ],
      [
        "s",
        "un"
      ],
      [
        "en",
        "g"
      ],
      [
        "st",
        "op"
      ],
      [
        "be",
        "ing"
      ],
      [
        "the",
        "y"
      ],
      [
        "ma",
        "il"
      ],
      [
        "bo",
        "ard"
      ],
      [
        "ph",
        "ys"
      ],
      [
        "list",
        "en"
      ],
      [
        "hel",
        "p"
      ],
      [
        "exer",
        "c"
      ],
      [
        "a",
        "f"
      ],
      [
        "h",
        "ot"
      ],
      [
        "m",
        "ay"
      ],
      [
        "s",
        "n"
      ],
      [
        "ha",
        "p"
      ],
      [
        "ma",
        "le"
      ],
      [
        "lo",
        "ve"
      ],
      [
        "jo",
        "b"
      ],
      [
        "ba",
        "ck"
      ],
      [
        "c",
        "our"
      ],
      [
        "e",
        "v"
      ],
      [
        "f",
        "re"
      ],
      [
        "h",
        "ol"
      ],
      [
        "m",
        "ight"
      ],
      [
        "w",
        "ind"
      ],
      [
        "in",
        "ess"
      ],
      [
        "or",
        "g"
      ],
      [
        "ma",
        "king"
      ],
      [
        "ul",
        "t"
      ],
      [
        "clo",
        "th"
      ],
      [
        "f",
        "i"
      ],
      [
        "r",
        "i"
      ],
      [
        "w",
        "om"
      ],
      [
        "ro",
        "ss"
      ],
      [
        "ch",
        "ine"
      ],
      [
        "ow",
        "er"
      ],
      [
        "ha",
        "ving"
      ],
      [
        "eat",
        "ing"
      ],
      [
        "wa",
        "it"
      ],
      [
        "thr",
        "ough"
      ],
      [
        "b",
        "ic"
      ],
      [
        "b",
        "ag"
      ],
      [
        "g",
        "ard"
      ],
      [
        "i",
        "ous"
      ],
      [
        "l",
        "ot"
      ],
      [
        "u",
        "gh"
      ],
      [
        "in",
        "ation"
      ],
      [
        "le",
        "g"
      ],
      [
        "fr",
        "u"
      ],
      [
        "dr",
        "ink"
      ],
      [
        "play",
        "ing"
      ],
      [
        "lo",
        "se"
      ],
      [
        "att",
        "end"
      ],
      [
        "c",
        "ap"
      ],
      [
        "d",
        "el"
      ],
      [
        "n",
        "ame"
      ],
      [
        "p",
        "et"
      ],
      [
        "r",
        "u"
      ],
      [
        "t",
        "le"
      ],
      [
        "en",
        "er"
      ],
      [
        "it",
        "ch"
      ],
      [
        "ro",
        "ck"
      ],
      [
        "he",
        "ar"
      ],
      [
        "he",
        "ad"
      ],
      [
        "di",
        "a"
      ],
      [
        "we",
        "ar"
      ],
      [
        "la",
        "ugh"
      ],
      [
        "if",
        "ic"
      ],
      [
        "mar",
        "ket"
      ],
      [
        "coun",
        "try"
      ],
      [
        "chan",
        "ge"
      ],
      [
        "differ",
        "ent"
      ],
      [
        "exerc",
        "ise"
      ],
      [
        "c",
        "ent"
      ],
      [
        "c",
        "ess"
      ],
      [
        "g",
        "row"
      ],
      [
        "m",
        "y"
      ],
      [
        "m",
        "et"
      ],
      [
        "s",
        "pa"
      ],
      [
        "s",
        "_1"
      ],
      [
        "t",
        "_"
      ],
      [
        "con",
        "cer"
      ],
      [
        "wh",
        "at"
      ],
      [
        "friend",
        "s"
      ],
      [
        "ob",
        "ject"
      ],
      [
        "pat",
        "ient"
      ],
      [
        "inn",
        "er"
      ],
      [
        "ey",
        "e"
      ],
      [
        "bic",
        "ycle"
      ],
      [
        "h",
        "ow"
      ],
      [
        "i",
        "et"
      ],
      [
        "m",
        "in"
      ],
      [
        "o",
        "g"
      ],
      [
        "p",
        "y"
      ],
      [
        "p",
        "ur"
      ],
      [
        "s",
        "ign"
      ],
      [
        "u",
        "al"
      ],
      [
        "w",
        "ere"
      ],
      [
        "at",
        "ive"
      ],
      [
        "en",
        "s"
      ],
      [
        "en",
        "joy"
      ],
      [
        "st",
        "or"
      ],
      [
        "ent",
        "s"
      ],
      [
        "ce",
        "ll"
      ],
      [
        "su",
        "p"
      ],
      [
        "comm",
        "un"
      ],
      [
        "gl",
        "ass"
      ],
      [
        "vie",
        "w"
      ],
      [
        "mem",
        "ber"
      ],
      [
        "fam",
        "ily"
      ],
      [
        "base",
        "ball"
      ],
      [
        "b",
        "and"
      ],
      [
        "c",
        "are"
      ],
      [
        "d",
        "ra"
      ],
      [
        "h",
        "ur"
      ],
      [
        "n",
        "ess"
      ],
      [
        "s",
        "of"
      ],
      [
        "th",
        "ink"
      ],
      [
        "it",
        "ion"
      ],
      [
        "im",
        "port"
      ],
      [
        "sh",
        "ip"
      ],
      [
        "fe",
        "ct"
      ],
      [
        "bu",
        "t"
      ],
      [
        "po",
        "st"
      ],
      [
        "wh",
        "o"
      ],
      [
        "clo",
        "the"
      ],
      [
        "num",
        "ber"
      ],
      [
        "dise",
        "ase"
      ],
      [
        "gard",
        "en"
      ],
      [
        "a",
        "il"
      ],
      [
        "c",
        "all"
      ],
      [
        "d",
        "et"
      ],
      [
        "f",
        "o"
      ],
      [
        "p",
        "ot"
      ],
      [
        "s",
        "ol"
      ],
      [
        "s",
        "id"
      ],
      [
        "w",
        "ood"
      ],
      [
        "st",
        "art"
      ],
      [
        "oc",
        "i"
      ],
      [
        "ch",
        "ar"
      ],
      [
        "am",
        "p"
      ],
      [
        "un",
        "ch"
      ],
      [
        "ve",
        "get"
      ],
      [
        "ex",
        "press"
      ],
      [
        "ap",
        "ple"
      ],
      [
        "can",
        "cer"
      ],
      [
        "ear",
        "th"
      ],
      [
        "dia",
        "bet"
      ],
      [
        "a",
        "ve"
      ],
      [
        "a",
        "way"
      ],
      [
        "b",
        "ad"
      ],
      [
        "b",
        "ur"
      ],
      [
        "d",
        "inner"
      ],
      [
        "e",
        "vent"
      ],
      [
        "f",
        "irst"
      ],
      [
        "f",
        "act"
      ],
      [
        "g",
        "ar"
      ],
      [
        "j",
        "um"
      ],
      [
        "n",
        "ing"
      ],
      [
        "n",
        "et"
      ],
      [
        "n",
        "ight"
      ],
      [
        "t",
        "s"
      ],
      [
        "t",
        "ick"
      ],
      [
        "t",
        "ell"
      ],
      [
        "u",
        "sed"
      ],
      [
        "w",
        "ell"
      ],
      [
        "w",
        "arm"
      ],
      [
        "er",
        "ic"
      ],
      [
        "at",
        "er"
      ],
      [
        "at",
        "ure"
      ],
      [
        "ar",
        "k"
      ],
      [
        "ou",
        "p"
      ],
      [
        "to",
        "w"
      ],
      [
        "ch",
        "il"
      ],
      [
        "te",
        "ach"
      ],
      [
        "pa",
        "re"
      ],
      [
        "dr",
        "en"
      ],
      [
        "wh",
        "ere"
      ],
      [
        "dre",
        "ss"
      ],
      [
        "news",
        "paper"
      ],
      [
        "des",
        "k"
      ],
      [
        "org",
        "an"
      ],
      [
        "spa",
        "ce"
      ],
      [
        "chil",
        "dren"
      ],
      [
        "b",
        "or"
      ],
      [
        "c",
        "up"
      ],
      [
        "c",
        "old"
      ],
      [
        "f",
        "ight"
      ],
      [
        "m",
        "en"
      ],
      [
        "p",
        "ict"
      ],
      [
        "v",
        "ac"
      ],
      [
        "on",
        "s"
      ],
      [
        "ro",
        "ad"
      ],
      [
        "ir",
        "t"
      ],
      [
        "el",
        "y"
      ],
      [
        "ma",
        "chine"
      ],
      [
        "um",
        "ent"
      ],
      [
        "thing",
        "s"
      ],
      [
        "oun",
        "tain"
      ],
      [
        "ass",
        "oci"
      ],
      [
        "tr",
        "u"
      ],
      [
        "pre",
        "sent"
      ],
      [
        "co",
        "ver"
      ],
      [
        "tra",
        "in"
      ],
      [
        "col",
        "or"
      ],
      [
        "stud",
        "y"
      ],
      [
        "phys",
        "ical"
      ],
      [
        "ener",
        "gy"
      ],
      [
        "veget",
        "able"
      ],
      [
        "diabet",
        "es"
      ],
      [
        "pict",
        "ure"
      ],
      [
        "e",
        "lect"
      ],
      [
        "h",
        "ard"
      ],
      [
        "s",
        "we"
      ],
      [
        "t",
        "alk"
      ],
      [
        "at",
        "es"
      ],
      [
        "at",
        "ta"
      ],
      [
        "ch",
        "ess"
      ],
      [
        "ce",
        "pt"
      ],
      [
        "ite",
        "m"
      ],
      [
        "el",
        "d"
      ],
      [
        "im",
        "in"
      ],
      [
        "te",
        "m"
      ],
      [
        "ta",
        "king"
      ],
      [
        "con",
        "tro"
      ],
      [
        "li",
        "e"
      ],
      [
        "par",
        "k"
      ],
      [
        "iz",
        "e"
      ],
      [
        "hor",
        "se"
      ],
      [
        "writ",
        "ing"
      ],
      [
        "tw",
        "o"
      ],
      [
        "d",
        "oc"
      ],
      [
        "e",
        "very"
      ],
      [
        "f",
        "ing"
      ],
      [
        "g",
        "ain"
      ],
      [
        "h",
        "y"
      ],
      [
        "l",
        "it"
      ],
      [
        "p",
        "or"
      ],
      [
        "se",
        "at"
      ],
      [
        "ing",
        "s"
      ],
      [
        "ar",
        "ch"
      ],
      [
        "ou",
        "ld"
      ],
      [
        "ation",
        "al"
      ],
      [
        "pl",
        "y"
      ],
      [
        "we",
        "ight"
      ],
      [
        "bo",
        "th"
      ],
      [
        "cre",
        "ate"
      ],
      [
        "cor",
        "d"
      ],
      [
        "sw",
        "im"
      ],
      [
        "bir",
        "d"
      ],
      [
        "wom",
        "an"
      ],
      [
        "import",
        "ant"
      ],
      [
        "i",
        "b"
      ],
      [
        "m",
        "ic"
      ],
      [
        "p",
        "op"
      ],
      [
        "t",
        "or"
      ],
      [
        "v",
        "ed"
      ],
      [
        "in",
        "str"
      ],
      [
        "le",
        "ss"
      ],
      [
        "st",
        "ay"
      ],
      [
        "im",
        "pro"
      ],
      [
        "your",
        "self"
      ],
      [
        "ma",
        "in"
      ],
      [
        "te",
        "am"
      ],
      [
        "di",
        "e"
      ],
      [
        "de",
        "c"
      ],
      [
        "do",
        "or"
      ],
      [
        "ang",
        "er"
      ],
      [
        "fre",
        "sh"
      ],
      [
        "concer",
        "t"
      ],
      [
        "contro",
        "l"
      ],
      [
        "c",
        "y"
      ],
      [
        "c",
        "es"
      ],
      [
        "g",
        "ir"
      ],
      [
        "m",
        "ountain"
      ],
      [
        "n",
        "ice"
      ],
      [
        "r",
        "ing"
      ],
      [
        "s",
        "ound"
      ],
      [
        "an",
        "k"
      ],
      [
        "an",
        "s"
      ],
      [
        "re",
        "member"
      ],
      [
        "al",
        "ity"
      ],
      [
        "ou",
        "th"
      ],
      [
        "ic",
        "s"
      ],
      [
        "un",
        "k"
      ],
      [
        "ad",
        "v"
      ],
      [
        "dr",
        "y"
      ],
      [
        "are",
        "a"
      ],
      [
        "comm",
        "it"
      ],
      [
        "plan",
        "e"
      ],
      [
        "anim",
        "al"
[...]
